{
  "</s>": 0,
  "<unk>": 1,
  ",": 2,
  ".": 3,
  "\u2581the": 4,
  "\u2581\u0939\u0948": 5,
  "\u2581\u0915\u0947": 6,
  "\u2581to": 7,
  "\u2581of": 8,
  "\u2581\u0914\u0930": 9,
  "\u2581and": 10,
  "\u2581\u092e\u0947\u0902": 11,
  "\u2581\u0938\u0947": 12,
  ")": 13,
  "\u2581\u0964": 14,
  "\u2581\u0915\u0940": 15,
  "s": 16,
  "\u2581(": 17,
  "\u2581\u0915\u094b": 18,
  "\u2581a": 19,
  ":": 20,
  "\u2581in": 21,
  "?": 22,
  "\u2581is": 23,
  "\u2581\u0915\u093e": 24,
  "\u2581\u0915\u093f": 25,
  "\u2581that": 26,
  "\u2581you": 27,
  "\u2581\u0939\u0948\u0902": 28,
  "\u2581\u0928\u0939\u0940\u0902": 29,
  "\u2581\u201d": 30,
  "\u2581\u201c": 31,
  "\u2581-": 32,
  "\u2581\u092a\u0930": 33,
  "\u2581for": 34,
  "\u2581\u0924\u094b": 35,
  "\u2581not": 36,
  "\u2581\u0928\u0947": 37,
  "\u2581\u090f\u0915": 38,
  "\u2581\u0932\u093f\u090f": 39,
  "\u0964": 40,
  "\u2581\u091c\u094b": 41,
  "\u2581be": 42,
  ";": 43,
  "\u2581": 44,
  "\u200d": 45,
  "\u2581will": 46,
  "\u2581\u092d\u0940": 47,
  "\u2581they": 48,
  "\u2581\u0935\u0939": 49,
  "\u2581with": 50,
  "\u2581\u0939\u094b": 51,
  "\u2581it": 52,
  "\u2581them": 53,
  "\u2581are": 54,
  "\u2581have": 55,
  "\u2581I": 56,
  "\u2581\u0915\u0930": 57,
  "\u2581\u0939\u0940": 58,
  "\u2581God": 59,
  "\u2581\u092f\u0939": 60,
  "!": 61,
  "\u2581his": 62,
  "\u2581\u0905\u092a\u0928\u0947": 63,
  "\u2581\u2014": 64,
  "\u2581\u0915\u094d\u092f\u093e": 65,
  "\u2581who": 66,
  "\u2581\u0928": 67,
  "\u2581on": 68,
  "-": 69,
  "'": 70,
  "\u2019": 71,
  "\u2581from": 72,
  "\u2581\u0924\u0941\u092e": 73,
  "\u2581he": 74,
  "\u2581\u0939\u092e": 75,
  "\u2581%": 76,
  "\u2581their": 77,
  "\u2581\u0915\u093f\u092f\u093e": 78,
  "\u2581as": 79,
  "\u2581was": 80,
  "\u2581The": 81,
  "\u2581\u0925\u093e": 82,
  "\u2581\"": 83,
  "\u2581\u0915\u0930\u0947\u0902": 84,
  "\u2581your": 85,
  "\u094b\u0902": 86,
  "\u2581we": 87,
  "\u2581\u0935\u0947": 88,
  "\u2581\u0907\u0938": 89,
  "\u2581this": 90,
  "\u2581\u0915\u0930\u0928\u0947": 91,
  "\u2581(_": 92,
  "\u2581And": 93,
  "\u2581\u092f\u0939\u094b\u0935\u093e": 94,
  "\u2581\u0915\u0941\u091b": 95,
  "\u2581Jehovah": 96,
  "\u2581by": 97,
  "\u2581all": 98,
  "\u2581\u0932\u094b\u0917\u094b\u0902": 99,
  "\u2581He": 100,
  "\u2581\u091c\u092c": 101,
  "\u2581or": 102,
  "\u2581\u0932\u094b\u0917": 103,
  "\u2581\u092e\u0948\u0902": 104,
  "\u2581him": 105,
  "\u2581_": 106,
  "\u2581Allah": 107,
  "\u2581\u0909\u0938": 108,
  "\u2581\u0915\u094b\u0908": 109,
  "\u2581do": 110,
  "\u2581\u092b\u093f\u0930": 111,
  "\u2581We": 112,
  "\u2581\u0909\u0938\u0915\u0947": 113,
  "\u2581[": 114,
  "\u2581\u0917\u092f\u093e": 115,
  "\u2581\u0938\u093e\u0925": 116,
  "\u2581what": 117,
  "\u2581\u0906\u092a": 118,
  "\u2581\u0915\u0930\u0924\u0947": 119,
  "\u2581has": 120,
  "\u2581when": 121,
  "\u2581those": 122,
  "\u0935\u0930": 123,
  "\u2581\u092f\u093e": 124,
  "\u2581\u0925\u0947": 125,
  "/": 126,
  "...": 127,
  "\u2581\u0909\u0928\u0915\u0947": 128,
  "\u2581were": 129,
  "\u0940": 130,
  "\u2581one": 131,
  "\u2581an": 132,
  "\u2581people": 133,
  "\u2581can": 134,
  "\u2581us": 135,
  "\u2581\u092a\u0930\u092e\u0947\u0936\u094d": 136,
  "ing": 137,
  "\u2581but": 138,
  "\u2581\u0926\u093f\u092f\u093e": 139,
  "\u2581\u0915\u0939\u093e": 140,
  "\u2581\u0909\u0928": 141,
  "t": 142,
  "\u2581\u0905\u092a\u0928\u0940": 143,
  "\u2581our": 144,
  "\u2581at": 145,
  "\u2581\u0909\u0938\u0947": 146,
  "\u2581\u2019": 147,
  "\u2581\u0905\u0932\u094d\u0932\u093e\u0939": 148,
  "\u2581said": 149,
  "\u2581shall": 150,
  "\u2581\u092f\u0947": 151,
  "\u2581\u0916\u093c\u0941\u0926\u093e": 152,
  "\u2581\u0930\u0939\u093e": 153,
  "\u2581had": 154,
  "\u2581my": 155,
  "\u2581me": 156,
  "\u2581which": 157,
  "\u2581\u092c\u093e\u0924": 158,
  "\u2581\u0909\u0928\u094d\u0939\u0947\u0902": 159,
  "\u2581\u0930\u0939\u0947": 160,
  "\u2581\u0915\u0930\u0924\u093e": 161,
  "]": 162,
  "\u2581\u0924\u0930\u0939": 163,
  "\u2581\u2018": 164,
  "\u2581Jesus": 165,
  "\u2581so": 166,
  "\u2581Lord": 167,
  "\u2581\u0938\u0915\u0924\u093e": 168,
  "\u2581\u0924\u0915": 169,
  "\u2581if": 170,
  "\u2581may": 171,
  "\u2581What": 172,
  "\u2581\u092a\u093e\u0938": 173,
  "\u0947": 174,
  "\u2581\u0938\u0915\u0924\u0947": 175,
  "\u2581\u092c\u0939\u0941\u0924": 176,
  "\u2581no": 177,
  "\u2581would": 178,
  "\u2581\u0928\u093e\u092e": 179,
  "\u25811": 180,
  "\u2581\u0915\u093f\u0938\u0940": 181,
  "\u2581\u0915\u093e\u092e": 182,
  "\u2581\u0926\u093f\u0928": 183,
  "\u2581\u0924\u0941\u092e\u094d\u0939\u093e\u0930\u0947": 184,
  "\u2581\u0939\u092e\u0947\u0902": 185,
  "\u2581\u0925\u0940": 186,
  "\u2581\u0915\u0930\u0928\u093e": 187,
  "\u2581there": 188,
  "\u2581\u0938\u092c": 189,
  "\u2581\u0938\u0902\u0926\u0947\u0936": 190,
  "\u2581\u0909\u0938\u0928\u0947": 191,
  "\u2581\u092f\u0940\u0936\u0941": 192,
  "\u2581out": 193,
  "\u2581\u0909\u0938\u0915\u0940": 194,
  "\u2581about": 195,
  "\u2581Bible": 196,
  "\u0924": 197,
  "\u2581In": 198,
  "\u2581time": 199,
  "\u2581\u0939\u0941\u090f": 200,
  "\u2581\u0938\u092e\u092f": 201,
  "\u2581did": 202,
  "\u2581been": 203,
  "\u2581\u092a\u0939\u0932\u0947": 204,
  "\u2581\u0939\u092e\u0928\u0947": 205,
  "\u2581\u0939\u0941\u0906": 206,
  "\u2581\u092c\u093e\u0930\u0947": 207,
  "\u2581\u092e\u0941\u091d\u0947": 208,
  "\u2581\u091c\u093e": 209,
  "_": 210,
  "\u2581You": 211,
  "\u2581then": 212,
  "\u2581up": 213,
  "\u2581\u0926\u094b": 214,
  "\u2581\u0905\u0917\u0930": 215,
  "\u2581They": 216,
  "\u2581\u0939\u092e\u093e\u0930\u0947": 217,
  "\u2581\u0939\u094b\u0917\u093e": 218,
  "\u2581\u092b\u093c\u093e\u0907\u0932": 219,
  "\u2581\u0917\u090f": 220,
  "\u2581\u0924\u092c": 221,
  "\u2581But": 222,
  "\u2581\u0915\u0930\u094b": 223,
  "\"": 224,
  "\u2581\u0926\u0940": 225,
  "\u2581life": 226,
  "\u2581\u092c\u093e\u0907\u092c\u0932": 227,
  "\u2581\u092e\u0947\u0930\u0947": 228,
  "\u2581good": 229,
  "\u2581\u0910\u0938\u093e": 230,
  "\u2581It": 231,
  "d": 232,
  "\u2581earth": 233,
  "\u2581\u0932\u0947\u0915\u093f\u0928": 234,
  "\u2581should": 235,
  "\u2581\u091a\u093e\u0939\u093f\u090f": 236,
  "\u2581\u0932\u0947": 237,
  "\u2581A": 238,
  "\u2581This": 239,
  "\u2581\u092c\u093e\u0926": 240,
  "\u2581some": 241,
  "\u2581into": 242,
  "\u2581day": 243,
  "\u2581How": 244,
  "\u2581\u0926\u0947": 245,
  "\u2581\u0930\u0942\u092a": 246,
  "\u2581before": 247,
  "\u2581\u0915\u094d\u092f\u094b\u0902\u0915\u093f": 248,
  "\u2581\u092b\u093c\u094b\u0932\u094d\u0921\u0930": 249,
  "\u2581her": 250,
  "\u2581more": 251,
  "\u2581say": 252,
  "\u2581only": 253,
  "\u2581\u0939\u0942\u0901": 254,
  "\u2581\u0924\u0941\u092e\u094d\u0939\u0947\u0902": 255,
  "\u2581'": 256,
  "\u2581\u0909\u0928\u0915\u0940": 257,
  "\u2581\u0913\u0930": 258,
  "\u2581man": 259,
  "\u093e": 260,
  "\u2581\u092f\u0926\u093f": 261,
  "\u2581made": 262,
  "\u2581\u091c\u093f\u0938": 263,
  "\u2581\u0939\u094b\u0924\u093e": 264,
  "\u2581\u0930\u0938\u0942\u0932": 265,
  "\u2581\u0939\u0930": 266,
  "\u2581know": 267,
  "\u2581than": 268,
  "\u2581come": 269,
  "\u2581other": 270,
  "\u2581also": 271,
  "\u2581things": 272,
  "\u2581\u091c\u093e\u0924\u093e": 273,
  "\u2581make": 274,
  "\u2581does": 275,
  "\u2581\u0910\u0938\u0947": 276,
  "\u2581\u0905\u092c": 277,
  "\u2581\u0915\u094d\u092f\u094b\u0902": 278,
  "\u2581\u0924\u0942": 279,
  "\u2581\u0915\u0948\u0938\u0947": 280,
  "\u2581\u0907\u0928": 281,
  "\u2581\u0909\u0938\u0915\u093e": 282,
  "\u0964\"": 283,
  "\u2581way": 284,
  "\u2581If": 285,
  "\u2581message": 286,
  "\u2581how": 287,
  "\u2581like": 288,
  "\u2581\u0938\u092d\u0940": 289,
  "\u2581His": 290,
  "ed": 291,
  "a": 292,
  "\u2581folder": 293,
  "\u2581upon": 294,
  "\u2581such": 295,
  "\u2581any": 296,
  "\u2581So": 297,
  ".\"": 298,
  "\u2581\u092e\u0926\u0926": 299,
  "\u2581name": 300,
  "\u2581\u0906": 301,
  "\u2581over": 302,
  "\u2581these": 303,
  "\u2581file": 304,
  "\u2581many": 305,
  "\u2581unto": 306,
  "\u2581even": 307,
  "\u2581could": 308,
  "\u2581When": 309,
  "\u2581\u0932\u093f\u092f\u0947": 310,
  "\u2581\u0907\u0938\u0915\u0947": 311,
  "\u2581For": 312,
  "\u2581\u0939\u094b\u0928\u0947": 313,
  "\u0928": 314,
  "\u2581\u092e\u0917\u0930": 315,
  "\u2581see": 316,
  "\u2581because": 317,
  "\u2581help": 318,
  "\u2581world": 319,
  "\u2581down": 320,
  "\u2581\u0905\u092a\u0928\u093e": 321,
  "\u2581after": 322,
  "\u2581\u092a\u0924\u093e": 323,
  "\u2581\u0932\u093f\u092f\u093e": 324,
  "\u2581\u0909\u0938\u0940": 325,
  "\u2581its": 326,
  "\u2581\u0909\u0928\u094d\u0939\u094b\u0902\u0928\u0947": 327,
  "\u2581'%": 328,
  "\u2581\u0908\u092e\u093e\u0928": 329,
  "\u2581men": 330,
  "\u2581\u0939\u0941\u0908": 331,
  "\u25812": 332,
  "\u2581\u0907\u0938\u0932\u093f\u090f": 333,
  "\u2581\u092e\u0947\u0930\u0940": 334,
  "\u2581\u0926\u094d\u0935\u093e\u0930\u093e": 335,
  "\u2581new": 336,
  "\u2581\u0915\u092d\u0940": 337,
  "\u2581against": 338,
  "\u2581ye": 339,
  "\u2581among": 340,
  "\u2581\u0935\u0939\u0940": 341,
  "\u2581\u0938\u0942\u091a\u0940": 342,
  "\u2581children": 343,
  "\u2581\u0930\u092c": 344,
  "S": 345,
  "\u0924\u093e": 346,
  "\u0910": 347,
  "\u2581All": 348,
  "\u2581Do": 349,
  "\u2581\u0926\u0942\u0938\u0930\u0947": 350,
  "\u2581/": 351,
  "\u2581work": 352,
  "\u2581\u0906\u091c": 353,
  "\u2581give": 354,
  "\u2581\u0926\u0947\u0924\u093e": 355,
  "\u2581\u0939\u092e\u093e\u0930\u0940": 356,
  "\u2581\u0924\u093e\u0915\u093f": 357,
  "\u2581\u0915\u093e\u0930\u094d\u092f": 358,
  "\u2581\u092f\u0939\u093e\u0901": 359,
  "\u2581\u0935\u093f\u0936\u094d": 360,
  "\u2581\u0935": 361,
  "\u2581love": 362,
  "m": 363,
  "\u2581she": 364,
  "\u2581Then": 365,
  "\u2581take": 366,
  "the": 367,
  "\u2581\u091c\u093e\u090f\u0917\u093e": 368,
  "\u2581\u091a\u093e\u0939\u0924\u0947": 369,
  "\u2581\u0915\u093f\u090f": 370,
  "\u2581two": 371,
  "\u2581believe": 372,
  "ly": 373,
  "\u2581sent": 374,
  "\u2581whom": 375,
  "\u2581No": 376,
  "\u2581first": 377,
  "\u2581\u092c\u0921\u093c\u093e": 378,
  "\u2581&": 379,
  "\u2581As": 380,
  "\u2581away": 381,
  "\u2581\u0918\u0930": 382,
  "\u2581\u0906\u092a\u0915\u094b": 383,
  "\u2581page": 384,
  "\u2581want": 385,
  "\u2581\u0909\u0938\u0938\u0947": 386,
  "\u2581Paul": 387,
  "\u2581\u092c\u0938": 388,
  "I": 389,
  "\u2581\u0915\u093f\u0938": 390,
  "\u2581\u0915\u094c\u0928": 391,
  "\u2581Him": 392,
  "e": 393,
  "\u2581years": 394,
  "\u2581\u091c\u0948\u0938\u0947": 395,
  "\u093f\u0924": 396,
  "\u2581\u092a\u0930\u0935\u0930\u0926\u093f\u0917\u093e\u0930": 397,
  "\u2581faith": 398,
  "\u2581came": 399,
  "\u2581truth": 400,
  "\u2581\u0915\u0939": 401,
  "\u2581others": 402,
  "\u2581\u0909\u0928\u0938\u0947": 403,
  "\u2581\u0909\u0928\u0915\u093e": 404,
  "\u2581\u091c\u093e\u090f": 405,
  "\u2581\u091a\u0940\u091c\u093c": 406,
  "\u2581being": 407,
  "\u2581\u0917\u092f\u0940": 408,
  "\u2581must": 409,
  "\u2581right": 410,
  "\u2581go": 411,
  "\u2581\u0938\u0915\u093e": 412,
  "\u2581Why": 413,
  "\u2581another": 414,
  "\u2581own": 415,
  "\u2581\u091c\u093e\u0928\u0947": 416,
  "\u2581\u0915\u093e\u0930\u0923": 417,
  "\u2581\u092c\u093e\u0930": 418,
  "\u2581\u092f\u093e\u0926": 419,
  "\u2581\u0938\u0947\u0935\u093e": 420,
  "\u2581\u092a\u0948\u0926\u093e": 421,
  "\u2581\u092c\u0928\u093e": 422,
  "\u2581nor": 423,
  "\u2581\u0915\u0930\u0947\u0917\u093e": 424,
  "\u2581\u0926\u094b\u0928\u094b\u0902": 425,
  "\u2581Could": 426,
  "\u2581\"%": 427,
  "\u0930": 428,
  "\u2581Israel": 429,
  "\u2581That": 430,
  "\u2581used": 431,
  "\u2581Witnesses": 432,
  "\u2581now": 433,
  "\u0924\u093f": 434,
  "\u2581\u0924\u0930\u092b": 435,
  "\u2581\u0909\u0928\u0915\u094b": 436,
  "O": 437,
  "\u2581\u092a\u094d\u0930\u0915\u093e\u0930": 438,
  "\u2581\u092c\u0921\u093c\u0940": 439,
  "\u2581\u091c\u093c\u094d\u092f\u093e\u0926\u093e": 440,
  "\u2581\u092f\u0939\u0940": 441,
  "\u2581thou": 442,
  "\u2581\u092d\u093e\u0908": 443,
  "\u2581\u092a\u0942\u0930\u093e": 444,
  "\u2581Our": 445,
  "\u2581let": 446,
  "\u2581Christ": 447,
  "\u0928\u093e": 448,
  "\u2581\u092a\u0947\u091c": 449,
  "\u2581need": 450,
  "\u2581\u091c\u0940\u0935\u0928": 451,
  "\u2581given": 452,
  "\u2581well": 453,
  "\u2581\u091c\u093f\u0928": 454,
  "\u2581\u092a\u0942\u0930\u0940": 455,
  "),": 456,
  "\u2581Christian": 457,
  "\u2581\u0938\u0902\u092a\u0930\u094d\u0915": 458,
  "\u2581\u0910": 459,
  "\u2581\u092e\u0938\u0940\u0939\u0940": 460,
  "\u2581\u0938\u093f\u0930\u094d\u092b": 461,
  "\u2581\u092a\u093f\u0924\u093e": 462,
  "\u2581\u0926\u0941\u0928\u093f\u092f\u093e": 463,
  "\u2581\u0915\u0930\u0947": 464,
  "\u2581says": 465,
  "\u2581every": 466,
  "\u2581\u0932\u0917\u0947": 467,
  "\u200c": 468,
  "\u2581just": 469,
  "\u2581\u0905\u091a\u094d\u091b\u093e": 470,
  "\u2581To": 471,
  "\u2581\u0915\u0930\u0915\u0947": 472,
  "\u2581\u0930\u093e\u091c\u093e": 473,
  "\u2581use": 474,
  "\u2581great": 475,
  "\u2581\u0915\u093f\u0924\u093e\u092c": 476,
  "\u2581find": 477,
  "\u2581most": 478,
  "\u2581Christians": 479,
  "\u2581\u0939\u094b\u0924\u0940": 480,
  "\u2581O": 481,
  "):": 482,
  "\u2581back": 483,
  "\u2581\u092c\u0940\u091a": 484,
  "\u2581\u0917\u0908": 485,
  "\u2581\u091a\u093e\u0939\u0924\u093e": 486,
  "\u201c": 487,
  "\u2581set": 488,
  "\u2581am": 489,
  "\u2581\u0910\u0938\u0940": 490,
  "\u2581\u0906\u0917\u0947": 491,
  "\u2581\u0930\u0939\u0940": 492,
  "\u2581through": 493,
  "\u2581\u0915\u0908": 494,
  "\u2581\u0928\u092f\u093e": 495,
  "\u2581\u0938\u0930\u094d\u0935\u0930": 496,
  "\u2581true": 497,
  "\u2581get": 498,
  "\u2581\u0938\u093e\u0932": 499,
  "\u2581\u092e\u0947\u0930\u093e": 500,
  "\u2581\u0924\u094d\u0930\u0941\u091f\u093f": 501,
  "\u2581\u0939\u094b\u0924\u0947": 502,
  "\u2581fear": 503,
  "\u2581\u0939\u093e\u0925": 504,
  "\u2581\u0938\u092c\u0938\u0947": 505,
  "\u2581found": 506,
  "\u2581\u0935\u093e\u0932\u093e": 507,
  "\u2581\u0907\u0938\u0947": 508,
  "\u0935\u093e\u0938": 509,
  "\u2581\u0907\u0938\u0938\u0947": 510,
  "\u2581family": 511,
  "\u2581heart": 512,
  "\u2581\u0905\u0932\u0917": 513,
  "\u2581death": 514,
  "\u2581Show": 515,
  "\u2581\u092e\u0942\u0938\u093e": 516,
  "\u2581\u0909\u0928\u092e\u0947\u0902": 517,
  "\u2581while": 518,
  "\u2581\u0938\u0939\u0940": 519,
  "\u2581\u091c\u093f\u0938\u0947": 520,
  "\u2581\u092a\u094c\u0932\u0941\u0938": 521,
  "\u2581\u0906\u092a\u0915\u0947": 522,
  "\u2581might": 523,
  "A": 524,
  "\u2581\u0924\u0941\u092e\u094d\u0939\u093e\u0930\u0940": 525,
  "\u2581\u092c\u0921\u093c\u0947": 526,
  "C": 527,
  "\u2581indeed": 528,
  "?\"": 529,
  "\u2581\u0939\u094b\u0902\u0917\u0947": 530,
  "\u2581\u0935\u093e\u0932\u0947": 531,
  "\u2581Day": 532,
  "\u2581\u091a\u0941\u0928\u0947\u0902": 533,
  "\u2581\u0926\u0947\u0936": 534,
  "\u2581\u0907\u0938\u092e\u0947\u0902": 535,
  "\u2581\u091b\u0935\u093f": 536,
  "\u2581son": 537,
  "\u2581\u092e\u0928": 538,
  "\u2581\u0935\u0939\u093e\u0901": 539,
  "\u2581become": 540,
  "\u2581\u091c\u093e\u0924\u0947": 541,
  "\u2581spirit": 542,
  "\u2581\u0926\u093f\u0916\u093e\u090f\u0901": 543,
  "\u2581Kingdom": 544,
  "\u2581\u092a\u0930\u0928\u094d\u0924\u0941": 545,
  "\u2581Canno": 546,
  "\u2581There": 547,
  "\u2581\u0935\u091c\u0939": 548,
  "\u0902": 549,
  "\u2581\u092c\u0947\u0936\u0915": 550,
  "\u2581\u0921\u093e\u0915": 551,
  "\u2581place": 552,
  "\u2581\u0927\u0930\u0924\u0940": 553,
  "\u2581ones": 554,
  "\u2581\u0935\u093f\u0937\u092f": 555,
  "\u2581\u0939\u092e\u0947\u0936\u093e": 556,
  ").": 557,
  "\u2581\u0920\u0940\u0915": 558,
  "E": 559,
  "\u2581land": 560,
  "\u2581\u0924\u0941\u092e\u094d\u0939\u093e\u0930\u093e": 561,
  "\u2581words": 562,
  "\u2581\u0915\u0939\u0924\u093e": 563,
  "\u2581\u0926\u0947\u0924\u0947": 564,
  "\u2581\u0932\u0917\u093e": 565,
  "\u2581\u0926\u093f\u0932": 566,
  "\u093f\u092f\u094b\u0902": 567,
  "in": 568,
  "\u2581\u0915\u0939\u0924\u0947": 569,
  "\u2581\u092c\u0932\u094d\u0915\u093f": 570,
  "\u2581themselves": 571,
  "\u2581\u092a\u094d\u0930\u092f\u094b\u0917": 572,
  "\u2581where": 573,
  "\u2581example": 574,
  "\u2581\u091c\u093e\u0928\u0924\u093e": 575,
  "\u2581between": 576,
  "Name": 577,
  "\u2581\u0915\u092e": 578,
  "\u2581\u0926\u0947\u0928\u0947": 579,
  "\u2581show": 580,
  "er": 581,
  "\u2581\u0909\u0938\u0915\u094b": 582,
  "\u2581list": 583,
  "\u2581\u0938\u0915\u0924\u0940": 584,
  "\u2581each": 585,
  "\u2581put": 586,
  "\u2581\u092c\u093e\u0939\u0930": 587,
  "\u2581\u0935\u091a\u0928": 588,
  "\u2581\u091c\u093e\u0924\u0940": 589,
  "\u2581never": 590,
  "\u2581\u092a\u094d\u0930\u093e\u092a\u094d\u0924": 591,
  "\u2581\u091c\u093e\u090f\u0901": 592,
  "\u2581\u0930\u0902\u0917": 593,
  "\u2581thee": 594,
  "\u2581\u0930\u093e\u091c\u094d\u092f": 595,
  "R": 596,
  "\u2581selected": 597,
  "\u2581\u091c\u093e\u0928\u093e": 598,
  "\u2581\u091a\u092f\u0928\u093f\u0924": 599,
  "\u2581\u092e\u0938\u0940\u0939": 600,
  "\u2581\u092e\u093e\u0930\u094d\u0917": 601,
  "\u2581\u091c\u0940": 602,
  "\u2581\u0926\u0942\u0930": 603,
  "\u2581\u0905\u091a\u094d\u091b\u0940": 604,
  "\u2581\u0936\u093e\u092f\u0926": 605,
  "\u2581\u0924\u0947\u0930\u0947": 606,
  "\u2581\u0916\u0941\u0926": 607,
  "\u2581\u092e\u0948\u0902\u0928\u0947": 608,
  "\u2581surely": 609,
  "\u2581\u0926\u0947\u0916\u093e": 610,
  "\u2581king": 611,
  "\u2581evil": 612,
  "\u2581\u092c\u093e\u0924\u0947\u0902": 613,
  "\u25813": 614,
  "\u2581house": 615,
  "\u2581open": 616,
  "\u2581New": 617,
  "\u2581\u0935\u093f\u0902\u0921\u094b": 618,
  "\u2581knowledge": 619,
  "\u2581\u0938\u094d\u0925\u093e\u0928": 620,
  "\u2581\u0915\u0930\u0947\u0902\u0917\u0947": 621,
  "\u2581Evolution": 622,
  "\u2581\u0906\u090f": 623,
  "i": 624,
  "\u2581part": 625,
  "\u2581worship": 626,
  "\u2581very": 627,
  "\u2581\u0939\u094b\u0917\u0940": 628,
  "\u0914\u0930": 629,
  "\u2581bring": 630,
  "\u2581much": 631,
  "\u2581\u091c\u093e\u0928\u0924\u0947": 632,
  "\u2581My": 633,
  "\u2581\u092a\u094d\u092f\u093e\u0930": 634,
  "\u2581\u0939\u093e\u0901": 635,
  "\u2581heavens": 636,
  "\u2581congregation": 637,
  "\u2581Say": 638,
  "\u2581\u092c\u093e\u0924\u094b\u0902": 639,
  "\u2581\u0938\u093e\u0930\u0947": 640,
  "\u2581\u0938\u093e\u092e\u0928\u0947": 641,
  "\u2581\u0916\u0941\u0926\u093e": 642,
  "\u2581C": 643,
  "\u2581\u091c\u0935\u093e\u092c": 644,
  "\u2581\u0906\u092f\u093e": 645,
  "\u2581\u091c\u093c\u092e\u0940\u0928": 646,
  "\u2581\u092a\u0940\u091b\u0947": 647,
  "\u2581\u0909\u0938\u092e\u0947\u0902": 648,
  "\u2581keep": 649,
  "\u2581\u0928\u093f\u0936\u094d\u091a\u092f": 650,
  "\u2581\u092a\u0930\u092e\u0947\u0936\u094d\u0935\u0930": 651,
  "\u2581Moses": 652,
  "\u2581One": 653,
  "\u2581end": 654,
  "\u2581\u0936\u0941\u0930\u0942": 655,
  "\u2581cannot": 656,
  "\u2581hearts": 657,
  "\u2581hand": 658,
  "\u2581thy": 659,
  "\u2581\u0926\u093f\u090f": 660,
  "re": 661,
  "\u2581messages": 662,
  "\u2581\u091c\u0917\u0939": 663,
  "\u2581\u0927\u094d\u092f\u093e\u0928": 664,
  "\u0924\u0947": 665,
  "\u2581spiritual": 666,
  "y": 667,
  "\u2581days": 668,
  "\u2581word": 669,
  "\u2581times": 670,
  "\u2581\u0939\u092e\u093e\u0930\u093e": 671,
  "\u2581\u0905\u0927\u093f\u0915": 672,
  "\u2581without": 673,
  "\u2581book": 674,
  "\u2581David": 675,
  "\u2581\u0926\u0947\u0916": 676,
  "\u2581\u0938\u094d\u0925\u093f\u0924\u093f": 677,
  "\u0928\u0947": 678,
  "\u2581\u0926\u0947\u0902": 679,
  "\u0938": 680,
  "\u2581\u0915\u0943\u092a\u092f\u093e": 681,
  "\u2581\u0909\u092a\u092f\u094b\u0917": 682,
  "\u2581\u091b\u094b\u0921\u093c": 683,
  "\u2581himself": 684,
  "\u2581Who": 685,
  "\u2581\u090a\u092a\u0930": 686,
  "D": 687,
  "\u2581\u0936\u0948\u0924\u093e\u0928": 688,
  "\u2581\u091c\u093c\u093f\u0902\u0926\u0917\u0940": 689,
  "\u2581\u0939\u094b\u0902": 690,
  "\u2581\u0935\u0915\u094d": 691,
  "\u2581\u0907\u0928\u0915\u093e\u0930": 692,
  "\u2581\u0930\u0939\u0928\u0947": 693,
  "\u2581gave": 694,
  "\u2581\u0915\u094b\u0936\u093f\u0936": 695,
  "\u2581\u091a\u093e\u0939\u0947": 696,
  "\u2581\u0915": 697,
  "\u2581turn": 698,
  "\u2581server": 699,
  "\u0915\u0930": 700,
  "\u2581Can": 701,
  "\u2581\u0926\u0947\u0917\u093e": 702,
  "\u2581same": 703,
  "\u2581\u0915\u0930\u0924\u0940": 704,
  "\u2581\u0939\u094b\u0915\u0930": 705,
  "\u2581\u091c\u093e\u0928": 706,
  "\u2581\u0939\u0947": 707,
  "\u2581\u0938\u0940": 708,
  "\u2581\u091c\u093f\u0938\u0928\u0947": 709,
  "\u2581until": 710,
  "\u2581Please": 711,
  "\u2581\u092a\u094d\u0930\u091a\u093e\u0930": 712,
  "\u2581created": 713,
  "\u2581\u0938\u092e\u091d": 714,
  "\u2581\u090f\u0935\u094b\u0932\u094d\u092f\u0942\u0936\u0928": 715,
  "\u0915": 716,
  "\u2581\u092c\u0928\u093e\u092f\u093e": 717,
  "\u2581\u0930\u0916\u093e": 718,
  "\u2581\u0930\u0916\u0924\u0947": 719,
  "\u2581\u092e\u0928\u0941\u0937\u094d\u092f": 720,
  "\u2581Book": 721,
  "\u2581\u0905\u091a\u094d\u091b\u0947": 722,
  "\u2581\u0905\u091c\u093c\u093e\u092c": 723,
  "\u2581\u0939\u094b\u0928\u093e": 724,
  "\u2581\u0916\u0947\u0932": 725,
  "\u2581files": 726,
  "\u2581\u0924\u0941\u092e\u0938\u0947": 727,
  "\u2581brought": 728,
  "\u2581read": 729,
  "\u2581\u0915\u0939\u0928\u0947": 730,
  "\u2581saying": 731,
  "\u2581too": 732,
  "\u258115": 733,
  "\u2581\u091c\u093c\u0930\u0942\u0930\u0924": 734,
  "\u2581\u092c\u091a\u094d\u091a\u094b\u0902": 735,
  "\u2581mail": 736,
  "\u2581here": 737,
  "\u2581\u0907\u0938\u0915\u093e": 738,
  "\u2581though": 739,
  "\u2581person": 740,
  "\u2581\u0907\u0938\u094d\u0924\u0947\u092e\u093e\u0932": 741,
  "\u2581father": 742,
  "\u2581\u0939\u0942\u0902": 743,
  "\u2581ask": 744,
  "\u2581\u0938\u093e\u092b": 745,
  "\u2581\u0935\u094d\u092f\u0915\u094d": 746,
  "\u2581called": 747,
  "\u2581parents": 748,
  "\u0947\u0902": 749,
  "\u2581Yahweh": 750,
  "\u0964\u0964": 751,
  "\u2581\u091c\u094b\u0921\u093c\u0947\u0902": 752,
  "\u2581\u0938\u0942\u091a\u0928\u093e": 753,
  "\u2581\u0928\u0940\u091a\u0947": 754,
  "\u2581means": 755,
  "\u2581Select": 756,
  "\u2581Those": 757,
  "able": 758,
  "\u2581information": 759,
  "\u2581Satan": 760,
  "\u2581\u0932\u093f\u0916\u093e": 761,
  "\u2581except": 762,
  "\u2581power": 763,
  "\u2581LORD": 764,
  "\u2581today": 765,
  "\u2581view": 766,
  "\u2581\u092a\u094d\u0930\u093e\u0930\u094d\u0925\u0928\u093e": 767,
  "\u2022": 768,
  "\u2581call": 769,
  "\u2581Your": 770,
  "\u2581error": 771,
  "\u2581\u092d\u093e\u0917": 772,
  "\u2581long": 773,
  "\u2581\u0906\u0915\u093e\u0936": 774,
  "\u2581image": 775,
  "\u2581account": 776,
  "\u2581again": 777,
  "\u2581\u092e\u0924\u0932\u092c": 778,
  "\u2581number": 779,
  "\u2581\u0932\u094b": 780,
  "\u2581Indeed": 781,
  "\u2581forth": 782,
  "\u2581\u092a\u0902\u091a\u093e\u0902\u0917": 783,
  "\u2581\u092d\u0947\u091c\u093e": 784,
  "%": 785,
  "\u2581\u0907\u0902\u0938\u093e\u0928": 786,
  "\u2581\u0915\u0940\u091c\u093f\u090f": 787,
  "\u2581\u0926\u0942\u0938\u0930\u094b\u0902": 788,
  "\u2581\u0967": 789,
  "\u2581three": 790,
  "\u2581\u0938\u093f\u0935\u093e": 791,
  "\u2581brothers": 792,
  "\u2581\u092e\u093f\u0938\u093e\u0932": 793,
  "\u2581window": 794,
  "\u2581\u0932\u0947\u0915\u0930": 795,
  "\u2581left": 796,
  "\u2581Is": 797,
  "\u2581On": 798,
  "\u2581\u092a\u094d\u0930\u0947\u092e": 799,
  "\u0932": 800,
  "\u2581b": 801,
  "\u2581old": 802,
  "ther": 803,
  "\u2581human": 804,
  "\u2581\u0924\u0948\u092f\u093e\u0930": 805,
  "\u2581\u091c\u093e\u0913": 806,
  "\u2581under": 807,
  "\u2581\u0916\u094b\u091c": 808,
  "\u2581\u0935\u093f\u0915\u0932\u094d\u092a": 809,
  "\u2581\u0930\u093e\u0924": 810,
  "\u2581home": 811,
  "\u2581\u0906\u0917": 812,
  "n": 813,
  "\u2581\u0924\u094c\u0930": 814,
  "\u2581\u0905\u0928\u094d\u092f": 815,
  "\u2581better": 816,
  "\u2581By": 817,
  "o": 818,
  "\u2581\u092a\u0943\u0925\u094d\u0935\u0940": 819,
  "\u2581\u0921\u093f\u0938\u094d\u0915": 820,
  "\u2581\u0916\u0941\u0936\u0940": 821,
  "\u2581\u0905\u0924\u0903": 822,
  "\u2581\u092a\u0930\u093f\u0935\u093e\u0930": 823,
  "\u2581went": 824,
  "\u2581servants": 825,
  "\u2581\u092e\u093f\u0932\u093e": 826,
  "\u2581water": 827,
  "\u2581\u0915\u093c\u094c\u092e": 828,
  "\u2581\u0907\u0938\u0940": 829,
  "\u2581peace": 830,
  "\u2581believers": 831,
  "\u2581both": 832,
  "\u2581%1": 833,
  "\u2581punishment": 834,
  "\u2581hath": 835,
  "\u25813:": 836,
  "\u2581\u0930\u0939": 837,
  "\u2581year": 838,
  "\u2581Whe": 839,
  "\u2581women": 840,
  "\u2581\u092a\u093e\u0920": 841,
  "\u2581Un": 842,
  "\u2581\u0915\u0947\u0935\u0932": 843,
  "\u2581follow": 844,
  "\u2581\u091c\u093c\u0930\u0942\u0930\u0940": 845,
  "\u2581done": 846,
  "\u2581why": 847,
  "\u2581Word": 848,
  "\u2581\u0924\u0941\u092e\u0928\u0947": 849,
  "\u2581cause": 850,
  "\u2581\u091c\u0948\u0938\u093e": 851,
  ".\u201d": 852,
  "\u2581\u0930\u0916\u0924\u093e": 853,
  "\u2581\u0932\u0947\u0902": 854,
  "\u2581\u092c": 855,
  "\u2581\u092f\u093e\u0924\u0928\u093e": 856,
  "\u2581\u092a\u093e\u0928\u0940": 857,
  "\u2581\u0926\u094c\u0930\u093e\u0928": 858,
  "\u2581\u0906\u0915\u093e\u0930": 859,
  "\u2581John": 860,
  "\u2581wife": 861,
  "\u2581apostle": 862,
  "\u2581sure": 863,
  "\u2581took": 864,
  "F": 865,
  "\u2581think": 866,
  "\u2581young": 867,
  "\u2581create": 868,
  "\u2581\u092a\u0943\u0937\u094d\u0920": 869,
  "\u2581\u092d\u0930": 870,
  "\u2581\u0926\u0943\u0936\u094d\u092f": 871,
  "\u2581save": 872,
  "\u2581full": 873,
  "to": 874,
  "\u2581\u0927\u0930\u094d\u092e": 875,
  "\u2581ever": 876,
  "\u2581\u0938\u0902\u0916\u094d\u092f\u093e": 877,
  "\u2581\u0930\u0939\u094b": 878,
  "\u2581\u0938\u093e": 879,
  "th": 880,
  "\u2581together": 881,
  "\u2581clear": 882,
  "\u2581yet": 883,
  "\u2581able": 884,
  "\u2581command": 885,
  "\u2581\u092c\u0928": 886,
  "\u2581close": 887,
  "\u2581off": 888,
  "\u2581\u0915\u0939\u0940\u0902": 889,
  "\u2581\u0932\u0917\u0924\u093e": 890,
  "\u2581told": 891,
  "\u2581\u0916\u093e\u0924\u093e": 892,
  "\u2581Name": 893,
  "\u2581\u0916": 894,
  "\u2581\u092a\u0935\u093f\u0924\u094d\u0930": 895,
  "r": 896,
  "c": 897,
  "\u25814": 898,
  "\u2581current": 899,
  "\u2581night": 900,
  "T": 901,
  "\u2581order": 902,
  "\u2581\u092e\u093e\u0928": 903,
  "\u2581Picture": 904,
  "\u2581mankind": 905,
  "\u0915\u0947": 906,
  "\u2581certainly": 907,
  "\u2581study": 908,
  "\u2581\u0905\u0927\u094d\u092f\u092f\u0928": 909,
  "\u2581\u0916\u094b\u0932\u0947\u0902": 910,
  "\u2581news": 911,
  "\u2581\u0936\u092c\u094d\u0926": 912,
  "\u2581\u0930\u0939\u0924\u0947": 913,
  "\u2581wrong": 914,
  "\u2581\u0938\u0939\u0947\u091c\u0947\u0902": 915,
  "al": 916,
  "\u094b": 917,
  "\u2581Add": 918,
  "\u2581became": 919,
  "\u2581feel": 920,
  "\u2581\u0921\u0930": 921,
  "\u2581\u091c\u0939\u093e\u0901": 922,
  "\u25812:": 923,
  "\u25815": 924,
  "\u2581\u0906\u092f\u0924": 925,
  "\u0935": 926,
  "\u2581already": 927,
  "\u2581Some": 928,
  "\u2581\u092c\u091a\u094d\u091a\u0947": 929,
  "\u2581\u0915\u094d\u0937\u0947\u0924\u094d\u0930": 930,
  "\u2581\u0906\u091c\u094d\u091e\u093e": 931,
  "\u258110": 932,
  "\u2581righteous": 933,
  "\u2581\u0939\u0941\u0915\u094d\u092e": 934,
  "\u2581still": 935,
  "\u2581live": 936,
  "\u2581\u092e\u0938\u0940\u0939\u093f\u092f\u094b\u0902": 937,
  "\u2581\u0924\u0941\u092e\u0915\u094b": 938,
  "\u2581best": 939,
  "\u2581\u0935\u0915\u094d\u0924": 940,
  "\u2581\u0906\u0928\u0947": 941,
  "\u2581signs": 942,
  "\u0928\u0940": 943,
  "\u2581\u0938\u0902\u0938\u093e\u0930": 944,
  "\u2581eyes": 945,
  "\u2581sin": 946,
  "\u2581\u0915\u093f\u0928\u094d\u0924\u0941": 947,
  "The": 948,
  "\u2581city": 949,
  "\u2581brother": 950,
  "P": 951,
  "\u2581doing": 952,
  "\u2581\u0907\u0938\u094d\u0930\u093e\u090f\u0932": 953,
  "\u2581\u0905\u0928\u0941\u0938\u093e\u0930": 954,
  "\u2581\u0915\u0939\u0924\u0940": 955,
  "\u2581\u091a\u0941\u0915\u093e": 956,
  "\u2581\u092d\u0930\u094b\u0938\u093e": 957,
  "\u2581sons": 958,
  "\u2581\u0932\u093e\u090f": 959,
  "\u2581following": 960,
  "\u2581\u092c\u0926\u0932\u093e": 961,
  "\u2581Are": 962,
  "\u2581faithful": 963,
  "\u2581\u0905\u092d\u0940": 964,
  "\u2581\u092e\u093f\u091f\u093e\u090f\u0901": 965,
  "\u0913\u0902": 966,
  "\u2581heaven": 967,
  "\u2581File": 968,
  "\u2581service": 969,
  "\u2581\u092e\u0924": 970,
  "\u2581\u092a\u094d\u0930\u092e\u093e\u0923\u092a\u0924\u094d\u0930": 971,
  "\u2581last": 972,
  "\u2581\u092c\u0928\u093e\u090f\u0901": 973,
  "\u25814:": 974,
  "\u2581Error": 975,
  "\u2581\u091c\u094d\u091e\u093e\u0928": 976,
  "\u2581\u092e\u093f\u0932": 977,
  "\u2581little": 978,
  "\u2581\u091a\u0941\u0915\u0947": 979,
  "an": 980,
  "\u2581mercy": 981,
  "\u2581\u0935\u093e\u0938\u094d\u0924\u0947": 982,
  "\u2581\u0928\u090f": 983,
  "\u2581project": 984,
  "\u2581return": 985,
  "\u2581send": 986,
  "\u2581address": 987,
  "\u2581nothing": 988,
  "\u2581\u092e\u093e\u0924\u093e": 989,
  "\u2581\u0926\u093e\u090a\u0926": 990,
  "\u2581\u092c\u093f\u0928\u093e": 991,
  "\u2581\u091c\u092c\u0915\u093f": 992,
  "\u2581*": 993,
  "\u2581\u091c\u093f\u0938\u092e\u0947\u0902": 994,
  "\u2581\u25a1": 995,
  "\u2581Let": 996,
  "\u2581\u092e\u0941\u091d": 997,
  "\u2581prayer": 998,
  "\u2581\u091c\u093e\u090f\u0901\u0917\u0947": 999,
  "\u2581\u0924\u0940\u0928": 1000,
  "\u2581\u0905": 1001,
  "\u25811:": 1002,
  "\u2581\u2013": 1003,
  "\u2581holy": 1004,
  "\u2581deeds": 1005,
  "\u2581course": 1006,
  "\u2581Thus": 1007,
  "\u2581However": 1008,
  "\u2581next": 1009,
  "\u2581\u0906\u0936\u093e": 1010,
  "\u2581\u0906\u0938\u092e\u093e\u0928": 1011,
  "\u2581\u091c\u093f\u0938\u0915\u0947": 1012,
  "\u2581\u0938\u094b": 1013,
  "\u2581\u0930\u0916\u0947\u0902": 1014,
  "\u2581\u0909\u0926\u093e\u0939\u0930\u0923": 1015,
  "\u2581hope": 1016,
  "\u2581\u0924\u0938\u0935\u0940\u0930": 1017,
  "\u2581At": 1018,
  "\u2581during": 1019,
  "\u2581\u092b\u093e\u0907\u0932": 1020,
  "\u2581Yes": 1021,
  "N": 1022,
  "\u2581knows": 1023,
  "\u2581Peter": 1024,
  "\u2581She": 1025,
  "\u2581\u0906\u0926\u092e\u0940": 1026,
  "\u2581thing": 1027,
  "\u2581\u0906\u0924\u094d\u092e\u093e": 1028,
  "\u2581\u092c\u0902\u0926": 1029,
  "\u2581\u092a\u093e\u0928\u0947": 1030,
  "\u2581(%": 1031,
  "\u2581\u0906\u0927\u094d\u092f\u093e\u0924\u094d\u092e\u093f\u0915": 1032,
  "\u2581\u092e\u094c\u091c\u0942\u0926": 1033,
  "\u2581mind": 1034,
  "\u2581\u0926\u0947\u0928\u093e": 1035,
  "\u2581text": 1036,
  "\u2581something": 1037,
  "\u2581wrote": 1038,
  "\u2581\u092a\u094d\u0930\u0926\u093e\u0928": 1039,
  "\u2581\u0917\u0941\u0923": 1040,
  "\u2581\u0932\u094b\u0921": 1041,
  "\u090f": 1042,
  "\u2581therefore": 1043,
  "\u2581\u092c\u0928\u093e\u0928\u0947": 1044,
  "\u2581\u0917\u0932\u0924": 1045,
  "\u2581\u0926\u0947\u0916\u0924\u0947": 1046,
  "\u2581America": 1047,
  "\u25815:": 1048,
  "\u2581\u0926\u0942\u0938\u0930\u0940": 1049,
  "\u2581\u091c\u093c\u0930\u0942\u0930": 1050,
  "\u2581neither": 1051,
  "\u258112": 1052,
  "M": 1053,
  "\u2581\u0938\u091a": 1054,
  "\u2581These": 1055,
  "\u092e": 1056,
  "\u2581look": 1057,
  "\u2581\u091c\u093f\u0928\u094d\u0939\u0947\u0902": 1058,
  "\u2581\u092a\u094d\u0930\u0924\u093f": 1059,
  "\u2581Not": 1060,
  "\u2581face": 1061,
  "\u2581\u0915\u0930\u0928\u0947\u0935\u093e\u0932\u0947": 1062,
  "\u2581S": 1063,
  "\u2581soul": 1064,
  "\u2581speak": 1065,
  "\u2581\u091c\u093e\u0928\u0915\u093e\u0930\u0940": 1066,
  "\u2581\u0915\u0942\u091f\u0936\u092c\u094d\u0926": 1067,
  "\u2581\u0930\u0916\u0928\u0947": 1068,
  "\u2581\u0932\u0947\u0928\u0947": 1069,
  "\u2581\u0938\u091a\u094d\u091a\u0947": 1070,
  "\u2581system": 1071,
  "\u2581Move": 1072,
  "\u2581leave": 1073,
  "\u2581\u092c\u0928\u093e\u090f": 1074,
  "\u2581child": 1075,
  "\u2581serve": 1076,
  "We": 1077,
  "\u2581With": 1078,
  "\u2581\u0930\u093e\u0939": 1079,
  "\u2581\u092c\u0924\u093e\u092f\u093e": 1080,
  "\u2581\u0930\u0939\u0924\u093e": 1081,
  "\u2581support": 1082,
  "\u2581\u0938\u093e\u0915\u094d\u0937\u0940": 1083,
  "\u2581don": 1084,
  "\u2581\u092a\u0921\u093c\u0947": 1085,
  "\u2581\u0938\u0932\u093e\u0939": 1086,
  "\u2581Father": 1087,
  "\u25817": 1088,
  "\u2581Now": 1089,
  "\u2581\u092f\u094b\u0917\u094d\u092f": 1090,
  "\u2581\u0930\u0916": 1091,
  "\u2581\u0924\u0941\u091d\u0947": 1092,
  "\u2581\u0932\u0947\u0916": 1093,
  "\u2581...": 1094,
  "\u2581learn": 1095,
  "\u2581\u092a\u094d\u0930\u092d\u0941": 1096,
  "\u2581\u0928\u091c\u093c\u0930": 1097,
  "\u2581going": 1098,
  "\u2581Jerusalem": 1099,
  "\u2581dead": 1100,
  "\u2581\u092e\u093e\u0901": 1101,
  "\u2581B": 1102,
  "of": 1103,
  "\u2581Yet": 1104,
  "\u2581\u091a\u0932": 1105,
  "\u2581\u091c\u093e\u090f\u0917\u0940": 1106,
  "\u25816:": 1107,
  "\u2581\u0938": 1108,
  "\u2581living": 1109,
  "\u2581\u091a\u093e\u0932": 1110,
  "\u2581\u0925\u0940\u0902": 1111,
  "\u2581Save": 1112,
  "\u2581really": 1113,
  "\u2581\u092e\u094c\u0924": 1114,
  "\u2581\u092a\u093e": 1115,
  "\u2581\u0938\u0915\u094d\u0930\u093f\u092f": 1116,
  "\u2581\u0905\u092e\u0947\u0930\u093f\u0915\u093e": 1117,
  "\u2581near": 1118,
  "\u2581light": 1119,
  "\u2581reward": 1120,
  "\u2581After": 1121,
  "\u2581\u092a\u093e\u092f\u093e": 1122,
  "\u2581having": 1123,
  "\u2581hands": 1124,
  "x": 1125,
  "\u2581woman": 1126,
  "\u2581View": 1127,
  "\u2581whether": 1128,
  "\u2581type": 1129,
  "\u2581\u0936\u093e\u092e\u093f\u0932": 1130,
  "\u2581Abraham": 1131,
  "\u2581saw": 1132,
  "\u2581\u0926\u093f\u0928\u094b\u0902": 1133,
  "\u2581free": 1134,
  "\u2581\u092a\u0924\u094d\u0928\u0940": 1135,
  "\u2581Most": 1136,
  "\u2581asked": 1137,
  "\u0928\u093e\u091c\u093c\u093f\u0932": 1138,
  "\u2581\u0916\u093e\u0932\u0940": 1139,
  "\u2581Messenger": 1140,
  "\u2581\u0938\u091a\u094d\u091a\u093e\u0908": 1141,
  "\u2581contact": 1142,
  "\u2581ways": 1143,
  "\u2581\u0935\u093f\u092b\u0932": 1144,
  "\u2581\u0938\u093e\u0930\u0940": 1145,
  "\u2581whose": 1146,
  "\u2581value": 1147,
  "\u2581later": 1148,
  "\u2581\u0939\u093e\u0932\u093e\u0901\u0915\u093f": 1149,
  "\u25816": 1150,
  "\u2581\u0915\u0930\u0940\u092c": 1151,
  "\u2581\u092d\u093e\u0937\u093e": 1152,
  "\u2581\u0928\u093f\u0938\u094d\u0938\u0902\u0926\u0947\u0939": 1153,
  "\u2581failed": 1154,
  "\u25818": 1155,
  "\u2581task": 1156,
  "\u2581\u0906\u092a\u0915\u093e": 1157,
  "\u2581\u092e\u093e\u0930": 1158,
  "\u2581\u0938\u0928\u094d": 1159,
  "\u2581important": 1160,
  "\u2581\u092c\u0941\u0930\u093e": 1161,
  "\u2581\u0936\u0915\u094d": 1162,
  "\u2581enter": 1163,
  "\u2581\u091c\u093c\u093e\u0939\u093f\u0930": 1164,
  "\u2581Failed": 1165,
  "\u2581\u0932\u0947\u0924\u0947": 1166,
  "\u2581\u092a\u0941\u0924\u094d\u0930\u093e": 1167,
  "\u2581mother": 1168,
  "\u2581tell": 1169,
  "\u2581often": 1170,
  "\u2581\u092a\u0939\u0932\u0940": 1171,
  "\u2581\u092c\u0926\u0932\u0947\u0902": 1172,
  "\u2581\u0939\u093f\u0938\u094d\u0938\u093e": 1173,
  "\u2581\u092a\u0942\u0930\u094d\u0923": 1174,
  "\u2581--": 1175,
  "!\"": 1176,
  "\u2581toward": 1177,
  "\u2581\u0938\u0947\u091f": 1178,
  "eth": 1179,
  "(": 1180,
  "\u2581revealed": 1181,
  "u": 1182,
  "\u258120": 1183,
  "\u2581understand": 1184,
  "\u094d": 1185,
  "\u2581fact": 1186,
  "\u2581Open": 1187,
  "\u2581\u092d\u091c\u0928": 1188,
  "\u2581\u0938\u093e\u0915\u094d\u0937\u093f\u092f\u094b\u0902": 1189,
  "\u2581fire": 1190,
  "\u2581\u092c\u0926\u0932": 1191,
  "\u2581using": 1192,
  "\u092e\u0948\u0902": 1193,
  "\u2581\u0938\u092e\u0942\u0939": 1194,
  "\u2581data": 1195,
  "\u2581\u092a\u093e\u092a": 1196,
  "\u2581\u0905\u0938\u092b\u0932": 1197,
  "\u2581matter": 1198,
  "\u2581according": 1199,
  "\u2581\u091c\u093f\u0938\u0915\u093e": 1200,
  "\u2581Folder": 1201,
  "\u2581\u0921\u093e\u0932": 1202,
  "\u2581blood": 1203,
  "L": 1204,
  "\u2581always": 1205,
  "\u25811,": 1206,
  "\u2581angels": 1207,
  ")...": 1208,
  "\u092f\u0947": 1209,
  "\u2581\u092c\u0930\u093e\u092c\u0930": 1210,
  "\u2581different": 1211,
  "\u2581\u0915\u0941\u0902\u091c\u0940": 1212,
  "\u2581\u0928\u093f\u0930\u094d\u0926\u0947\u0936\u093f\u0915\u093e": 1213,
  "\u2581religion": 1214,
  "\u0915\u094d\u092f\u093e": 1215,
  "\u2581hear": 1216,
  "\u2581\u0932\u0940": 1217,
  "\u2581\u0939\u093e\u0932": 1218,
  "\u2581\u0935\u093e\u0932\u094b\u0902": 1219,
  "b": 1220,
  "\u2581Use": 1221,
  "\u2581\u0921\u093e\u0932\u093e": 1222,
  "\u2581\u092c\u093e\u092a": 1223,
  "\u2581\u0928\u0915\u093c\u0932": 1224,
  "\u2581\u092a\u094d\u0930\u0947\u0930\u093f\u0924": 1225,
  "\u2581\u0968": 1226,
  "\u2581\u0935\u093e\u092a\u0938": 1227,
  "\u2581~": 1228,
  "\u2581began": 1229,
  "\u2581\u0930\u0939\u0947\u0902\u0917\u0947": 1230,
  "\u2581\u0924\u0925\u093e": 1231,
  "\u2581\u0924\u0947\u0930\u0940": 1232,
  "\u2581taken": 1233,
  "\u2581eat": 1234,
  "\u2581Message": 1235,
  "\u2581making": 1236,
  "\u2581food": 1237,
  "\u2581\u0939\u0915\u093c": 1238,
  "\u2581\u0930\u0916\u094b": 1239,
  "\u2581reason": 1240,
  "\u2581mode": 1241,
  "\u2581\u091c\u093f\u0928\u0915\u0947": 1242,
  "\u2581\u0915\u0932\u0940\u0938\u093f\u092f\u093e": 1243,
  "\u2581\u091c\u093f\u0938\u0938\u0947": 1244,
  "or": 1245,
  "\u2581disciples": 1246,
  "\u2581known": 1247,
  "\u2581\u0938\u093e\u092e\u093e\u0928\u094d\u092f": 1248,
  "\u2581From": 1249,
  "\u2581\u0915\u093e\u092e\u094b\u0902": 1250,
  "\u2581\u0930\u0916\u0928\u093e": 1251,
  "\u2581path": 1252,
  "\u2581\u0938\u092e\u093e\u0928": 1253,
  "\u2581\u0935\u094d\u092f\u0935\u0938\u094d\u0925\u093e": 1254,
  "\u2581\u0936\u0916\u094d\u0938": 1255,
  "\u25819": 1256,
  "\u2581far": 1257,
  "\u2581\u0915\u092e\u093e\u0902\u0921": 1258,
  "\u2581\u092a\u0942\u0930\u0947": 1259,
  "\u2581E": 1260,
  "\u2581comes": 1261,
  "\u2581D": 1262,
  "\u2581nations": 1263,
  "\u2581witness": 1264,
  "\u2581\u0907\u0938\u0915\u0940": 1265,
  "\u2581\u092a\u0930\u093f\u092f\u094b\u091c\u0928\u093e": 1266,
  "\u092e\u0947\u0902": 1267,
  "\u2581receive": 1268,
  "\u2581guidance": 1269,
  "\u2581heard": 1270,
  "\u2581\u0907\u0924\u0928\u093e": 1271,
  "\u2581List": 1272,
  "\u2581wisdom": 1273,
  "\u2581seen": 1274,
  "B": 1275,
  "\u2581\u0935\u094d\u092f\u0915\u094d\u0924\u093f": 1276,
  "\u2581ministry": 1277,
  "\u2581four": 1278,
  "l": 1279,
  "\u2581preaching": 1280,
  "\u2581\u0906\u092a\u0915\u0940": 1281,
  "\u2581\u0915\u0939\u094b": 1282,
  "ll": 1283,
  "\u2581\u0906\u092f\u093e\u0924": 1284,
  "\u2581turned": 1285,
  "\u2581\u091c\u093f\u0928\u094d\u0939\u094b\u0902\u0928\u0947": 1286,
  "\u2581\u091a\u0932\u093e": 1287,
  "\u2581\u092e\u0941\u0901\u0939": 1288,
  "\u2581\u0926\u0947\u0916\u094b": 1289,
  "\u2581\u0926\u093f\u0916\u093e\u092f\u093e": 1290,
  "\u2581\u0926\u0947\u0916\u0928\u0947": 1291,
  "\u2581\u0909\u0928\u092a\u0930": 1292,
  "\u2581Create": 1293,
  "\u2581around": 1294,
  "\u2581Even": 1295,
  "\u2581Matthew": 1296,
  "\u2581calendar": 1297,
  "\u2581desire": 1298,
  "\u2581\u0939\u0947\u0924\u0941": 1299,
  "\u2581seek": 1300,
  "\u2581change": 1301,
  "\u2581\u092a\u0924\u0930\u0938": 1302,
  "\u2581\u0906\u092a\u0928\u0947": 1303,
  "\u2581few": 1304,
  "\u2581Surely": 1305,
  "\u2581\u092f\u0930\u0942\u0936\u0932\u0947\u092e": 1306,
  "\u094d\u0938": 1307,
  "\u2581\u092f\u0915\u093c\u0940\u0928\u0928": 1308,
  "\u2581\u092a\u0947\u0936": 1309,
  "\u092e\u094c\u091c\u0942\u0926\u093e": 1310,
  "\u2581\u0916\u094b\u0932": 1311,
  "\u2581\u0938\u094d\u0924\u094d\u0930\u0940": 1312,
  "\u2581\u0935\u0930\u094d\u0937": 1313,
  "\u2581\u0930\u0939\u0928\u093e": 1314,
  "\u2581\u092a\u091f\u094d\u091f\u0940": 1315,
  "\u2581password": 1316,
  "\u2581result": 1317,
  "\u2581\u092c\u091c\u093e\u092f": 1318,
  "\u2581\u091c\u093c\u0930\u093f\u090f": 1319,
  "\u2581law": 1320,
  "\u092f": 1321,
  "\u2581disc": 1322,
  "\u2581\u091a\u0932\u0947": 1323,
  "\u2581field": 1324,
  "\u2581remember": 1325,
  "\u258116": 1326,
  "\u2581therein": 1327,
  "g": 1328,
  "\u2581\u092c\u0947\u091f\u0947": 1329,
  "\u2581wicked": 1330,
  "\u2581Or": 1331,
  "\u2581\u0915\u0930\u0928\u0947\u0935\u093e\u0932\u094b\u0902": 1332,
  "\u0908": 1333,
  "\u2581\u092d\u093e\u0907\u092f\u094b\u0902": 1334,
  "\u2581\u0909\u092a\u093e\u0938\u0928\u093e": 1335,
  "\u2581\u092b\u0932": 1336,
  "\u2581\u092a\u0941\u0938\u094d\u0924\u093f\u0915\u093e": 1337,
  "\u2581\u092c\u0926\u0932\u0947": 1338,
  "\u0915\u0940": 1339,
  "\u2581Psalm": 1340,
  "\u2581promise": 1341,
  "\u2581century": 1342,
  "\u2581high": 1343,
  "\u2581\u092e\u0924\u094d\u0924\u0940": 1344,
  "ve": 1345,
  "\u2581\u092a\u0938\u0902\u0926": 1346,
  "\u2581display": 1347,
  "\u2581\u0909\u0924\u094d\u0924\u0930": 1348,
  "\u2581\u0926\u0947\u0902\u0917\u0947": 1349,
  "st": 1350,
  "\u2581King": 1351,
  "\u2581\u092d\u092f": 1352,
  "\u2581\u0916\u093e\u0938": 1353,
  "\u2581consider": 1354,
  "\u258113": 1355,
  "\u2581above": 1356,
  "\u2581thus": 1357,
  "\u2581group": 1358,
  "\u2581\u091c\u094d\u091e\u093e\u092a\u0928": 1359,
  "U": 1360,
  "\u2581\u0915\u0930\u094d\u092e": 1361,
  "\u2581\u0930\u0939\u0947\u0917\u093e": 1362,
  "\u2581die": 1363,
  "\u2581move": 1364,
  "\u2581\u092e\u0930": 1365,
  "\u258111": 1366,
  "\u2581\u092e\u0941\u0924\u093e\u092c\u093f\u0915": 1367,
  "\u2581whatever": 1368,
  "\u2581nation": 1369,
  "\u2581\u0906\u0924\u093e": 1370,
  "\u2581\u092a\u0921\u093c\u093e": 1371,
  "\u2581trust": 1372,
  "\u2581answer": 1373,
  "\u2581\u0935\u093f\u091a\u093e\u0930": 1374,
  "\u2581works": 1375,
  "\u2581\u0924\u0947\u0930\u093e": 1376,
  "\u2581\u0938\u094d\u0930\u094b\u0924": 1377,
  "\u258114": 1378,
  "\u2581\u0917\u0941\u0928\u093e\u0939": 1379,
  "\u2581\u092e\u093e\u0932\u0942\u092e": 1380,
  "\u2581\u092a\u0924\u093f": 1381,
  "\u2581\u092a\u0930\u093f\u0935\u0930\u094d\u0924\u0928": 1382,
  "\u2581available": 1383,
  "\u2581\u0938\u094d\u092a\u0937\u094d\u091f": 1384,
  "\u258117": 1385,
  "\u2581changes": 1386,
  "\u2581\u0938\u094d\u0935\u092f\u0902": 1387,
  "\u2581present": 1388,
  "\u2581\u092e\u093e\u0932": 1389,
  "\u2581\u092e\u0948": 1390,
  "\u2581\u092c\u0922\u093c": 1391,
  "\u2581verily": 1392,
  "\u2581\u0915\u094d\u0937\u092e\u093e": 1393,
  "\u2581\u092f\u0942\u0939\u0928\u094d": 1394,
  "\u2581\u092e\u091c\u093c\u092c\u0942\u0924": 1395,
  "\u2581meeting": 1396,
  "\u258118": 1397,
  "\u2581\u0905\u0932\u093e\u0935\u093e": 1398,
  "\u2581Go": 1399,
  "\u092c": 1400,
  "\u2581\u092e\u0947\u0932": 1401,
  "\u2581anything": 1402,
  "\u2581\u0915\u093e\u092b\u0940": 1403,
  "\u2581\u092a\u094d\u0930\u093e\u091a\u0940\u0928": 1404,
  "\u2581however": 1405,
  "\u2581An": 1406,
  "\u2581body": 1407,
  "\u2581kind": 1408,
  "\u2581\u0928\u0917\u0930": 1409,
  "\u2581\u0939\u0938\u094d\u0924\u093e\u0915\u094d\u0937\u0930": 1410,
  "es": 1411,
  "\u2581\u0930\u0939\u0947\u0902": 1412,
  "\u2581\u0909\u092a\u092f\u094b\u0915\u094d\u0924\u093e": 1413,
  "\u2581\u092a\u094d\u0930\u093e\u0930\u0902\u092d": 1414,
  "\u2581Son": 1415,
  "\u2581\u0907\u0938\u0932\u093f\u092f\u0947": 1416,
  "\u2581share": 1417,
  "\u2581\u091c\u093e\u0930\u0940": 1418,
  "\u2581Search": 1419,
  "\u2581someone": 1420,
  "\u2581\u0928\u094d\u092f\u093e\u092f": 1421,
  "\u2581loving": 1422,
  "\u2581yourselves": 1423,
  "\u2581\u0938\u094d\u0935\u0930\u094d\u0917": 1424,
  "\u2581key": 1425,
  "\u2581\u092e\u093e\u092e\u0932\u0947": 1426,
  "\u2581\u092e\u0939\u0938\u0942\u0938": 1427,
  "\u2581\u092c\u0941\u0926\u094d\u0927\u093f": 1428,
  "\u2581sign": 1429,
  "\u2581\u0905\u0927\u093f\u0915\u093e\u0930": 1430,
  "\u2581source": 1431,
  "\u2581try": 1432,
  "\u2581please": 1433,
  "\u0903": 1434,
  "\u2581marriage": 1435,
  "\u2581joy": 1436,
  "\u2581\u0935\u093e\u0926\u093e": 1437,
  "\u2581\u0928\u0908": 1438,
  "\u2581Jews": 1439,
  "\u2581directory": 1440,
  "\u2581Of": 1441,
  "on": 1442,
  "\u2581\u0915\u0948\u0938\u093e": 1443,
  "1$": 1444,
  "2$": 1445,
  "\u2581Have": 1446,
  "\u2581\u092a\u0939\u0941\u0901\u091a": 1447,
  "\u2581case": 1448,
  "\u2581purpose": 1449,
  "\u2581received": 1450,
  "\u2581thought": 1451,
  "\u2581\u092e\u093f\u0932\u0940": 1452,
  "\u2581none": 1453,
  "\u2581\u091c\u093e\u0915\u0930": 1454,
  "\u2581Us": 1455,
  "\u2581everything": 1456,
  "\u2581\u0909\u092a\u0932\u092c\u094d\u0927": 1457,
  "\u2581hard": 1458,
  "\u2581\u0909\u0920\u093e": 1459,
  "\u2581\u092f\u0941\u0926\u094d\u0927": 1460,
  "\u0916\u093c\u0941\u0926\u093e": 1461,
  "\u2581since": 1462,
  "\u2581\u0936\u0939\u0930": 1463,
  "\u2581Scriptures": 1464,
  "\u2581temporary": 1465,
  "\u2581start": 1466,
  "\u2581husband": 1467,
  "\u2581\u0917\u0935\u093e\u0939\u0940": 1468,
  "\u2581\u092c\u0947\u0939\u0924\u0930": 1469,
  "\u2581Verily": 1470,
  "\u2581certain": 1471,
  "\u2581seven": 1472,
  "\u2581\u0938\u0924\u094d\u092f": 1473,
  "\u2581elders": 1474,
  "\u092a\u0930": 1475,
  "\u2581whole": 1476,
  "\u2581appointed": 1477,
  "\u2581\u0936\u093e\u0926\u0940": 1478,
  "\u2581\u091c\u093e\u0924\u093f": 1479,
  "\u2581Many": 1480,
  "\u2581\u091c\u0932\u094d\u0926": 1481,
  "\u2581\u0928\u093f\u0936\u094d\u091a\u093f\u0924": 1482,
  "\u2581\u0938\u0935\u093e\u0932": 1483,
  "\u2581\u0905\u0924\u094d\u092f\u0928\u094d": 1484,
  "\u2581bad": 1485,
  "\u2581\u091c\u093f\u0938\u0915\u0940": 1486,
  "\u2581lives": 1487,
  "\u2581personal": 1488,
  "\u2581continue": 1489,
  "\u091c\u094b": 1490,
  "\u2581\u0938\u092e\u093e\u092a\u094d\u0924": 1491,
  "\u2581\u092d\u0947\u091c\u0947\u0902": 1492,
  "\u2581yourself": 1493,
  "\u258125": 1494,
  "You": 1495,
  "\u2581\u0907\u091a\u094d\u091b\u093e": 1496,
  "\u2581\u092a\u0939\u0941\u0901\u091a\u093e": 1497,
  "\u2581\u092e\u094b\u0921": 1498,
  "\u2581\u0905\u0935\u0948\u0927": 1499,
  "\u2581\u092d\u0932\u093e\u0908": 1500,
  "\u2581fine": 1501,
  "H": 1502,
  "\u0924\u0940": 1503,
  "\u2581\u0916\u0921\u093c\u0947": 1504,
  "\u2581humans": 1505,
  "\u2581\u092e\u0943\u0924\u094d\u092f\u0941": 1506,
  "\u2581\u0926\u0947\u0916\u0947\u0902": 1507,
  "\u2581counsel": 1508,
  "\u2581add": 1509,
  "\u2581X": 1510,
  "\u2581\u0915\u0930\u0928\u0947\u0935\u093e\u0932\u093e": 1511,
  "\u258119": 1512,
  "\u2581\u092a\u0930\u093f\u0923\u093e\u092e": 1513,
  "\u2581\u0936\u093f\u0915\u094d\u0937\u093e": 1514,
  "\u2581Read": 1515,
  "\u2581\u0915\u093f\u0924\u0928\u093e": 1516,
  "\u2581\u0928\u093f\u0915\u0932": 1517,
  "\u2581folders": 1518,
  "\u2581\u0918\u091f\u0928\u093e": 1519,
  "\u2581\u0905\u092d\u093f\u0932\u0947\u0916": 1520,
  "\u2581Remove": 1521,
  "\u2581soon": 1522,
  "\u2581knew": 1523,
  "\u2581search": 1524,
  "\u2581makes": 1525,
  "\u2581local": 1526,
  "\u2581\u0926\u0947\u0924\u0940": 1527,
  "\u2581\u0938\u0915\u0947": 1528,
  "\u2581\u0926\u094b\u0938\u094d\u0924": 1529,
  "\u2581\u201c%": 1530,
  "\u2581`%": 1531,
  "\u2581\u0938\u0939\u093e\u092f\u0924\u093e": 1532,
  "\u2581fellow": 1533,
  "\u2581provided": 1534,
  "\u2581gives": 1535,
  "\u2581stand": 1536,
  "2": 1537,
  "\u2581future": 1538,
  "\u2581game": 1539,
  "\u2581behind": 1540,
  "\u2581\u0932\u093e\u0917\u0942": 1541,
  "\u201d": 1542,
  "\u093c": 1543,
  "\u2581article": 1544,
  "\u2581\u0935\u0940\u0921\u093f\u092f\u094b": 1545,
  "\u2581\u092a\u094d\u0930\u094b\u0917\u094d\u0930\u093e\u092e": 1546,
  "\u2581\u0935\u093f\u0928\u094d\u092f\u093e\u0938": 1547,
  "\u2581side": 1548,
  "\u2581\u0926\u093f\u0916\u093e": 1549,
  "\u2581along": 1550,
  "\u2581covenant": 1551,
  "\u2581\u0936\u0915": 1552,
  "\u2581\u0938\u094d\u0925\u093e\u0928\u0940\u092f": 1553,
  "\u2581sins": 1554,
  "\u2581\u0938\u0941\u0930\u0915\u094d\u0937\u093f\u0924": 1555,
  "\u2581\u0926\u0947\u0916\u0915\u0930": 1556,
  "\u2581\u092c\u092f\u093e\u0928": 1557,
  "\u2581Because": 1558,
  "\u2581empty": 1559,
  "\u2581point": 1560,
  "\u2581\u0905\u0902\u0926\u0930": 1561,
  "\u2581possible": 1562,
  "\u2581alone": 1563,
  "\u2581\u091c\u093e\u0901\u091a": 1564,
  "p": 1565,
  "\u2581\u0935\u0930\u094d\u0924\u092e\u093e\u0928": 1566,
  "\u2581language": 1567,
  "\u2581righteousness": 1568,
  "\u2581war": 1569,
  "\u2581sound": 1570,
  "\u2581Me": 1571,
  "\u2581believed": 1572,
  "\u2581takes": 1573,
  "\u2581benefit": 1574,
  "\u2581\u0907\u0924\u093f\u0939\u093e\u0938": 1575,
  "\u2581\u0924\u0941\u091d": 1576,
  "\u2581line": 1577,
  "\u2581\u091a\u0932\u0924\u0947": 1578,
  "\u2581care": 1579,
  "\u2581\u092c\u0941\u0930\u093e\u0908": 1580,
  "\u2581\u092d\u0932\u093e": 1581,
  "\u2581\u0938\u093e\u092e\u0928\u093e": 1582,
  "\u2581\u0928\u093f\u0915\u093e\u0932": 1583,
  "\u2581Would": 1584,
  "\u2581\u0924\u092f\u0936\u0941\u0926\u093e": 1585,
  "\u2581\u0938\u0941\u0928": 1586,
  "\u2581\u0938\u094b\u091a": 1587,
  "\u2581\u0915\u0930\u0928\u0940": 1588,
  "\u2581accept": 1589,
  "\u2581Such": 1590,
  "\u2581\u0935\u0938\u094d\u0924\u0941": 1591,
  "\u2581Asia": 1592,
  "\u2581anyone": 1593,
  "\u2581helped": 1594,
  "],": 1595,
  "\u2581\u092c\u0941\u0930\u0940": 1596,
  "\u2581friends": 1597,
  "\u2581\u0905\u091c\u094d\u091e\u093e\u0924": 1598,
  "Comment": 1599,
  "\u2581lead": 1600,
  "\u2581\u092e\u0941\u0936\u094d": 1601,
  "\u2581date": 1602,
  "\u2581\u092e\u093e\u0928\u0924\u0947": 1603,
  "\u2581doubt": 1604,
  "\u2581Their": 1605,
  "\u2581Be": 1606,
  "\u2581got": 1607,
  "\u2581sea": 1608,
  "\u2581\u0969": 1609,
  "\u2581wise": 1610,
  "\u2581\u0905\u0928\u0941\u092e\u0924\u093f": 1611,
  "\u2581religious": 1612,
  "\u2581\u0938\u092e\u091d\u0924\u0947": 1613,
  "\u2581\u092a\u0948\u0917\u093c\u092e\u094d\u092c\u0930": 1614,
  "\u092f\u093e": 1615,
  "\u2581\u0936\u092c\u094d\u0926\u094b\u0902": 1616,
  "\u2581anointed": 1617,
  "\u2581\u092d\u0947\u091c": 1618,
  "\u2581\u0938\u092e\u0930\u094d\u0925\u0928": 1619,
  "\u2581\u0915\u094d\u0932\u093f\u0915": 1620,
  "\u2581\u092e\u093f\u0932\u0924\u0940": 1621,
  "\u2581\u0938\u094d\u0915\u094d\u0930\u0940\u0928": 1622,
  "\u2581Therefore": 1623,
  "\u2581money": 1624,
  "\u2581\u0915\u093f\u0924\u0928\u0940": 1625,
  "\u2581\u0938\u0939\u093e\u092f\u0915": 1626,
  "\u0906\u0916\u093c\u093f\u0930\u0924": 1627,
  "\u2581mean": 1628,
  "f": 1629,
  "\u2581ten": 1630,
  "\u2581\u0938\u0902\u0938\u094d\u0915\u0930\u0923": 1631,
  "\u2581\u0905\u0902\u0924": 1632,
  "\u2581Fire": 1633,
  "\u2581\u091a\u093e\u0930": 1634,
  "\u2581within": 1635,
  "\u2581Will": 1636,
  "\u2581\u092a\u0902\u0915\u094d\u0924\u093f": 1637,
  "\u2581user": 1638,
  "\u2581second": 1639,
  "\u2581\u0906\u0927\u093e\u0930": 1640,
  "\u2581\u091c\u094d\u092f\u093e\u0926\u093e": 1641,
  "\u2581coming": 1642,
  "\u2581\u091c\u092e\u093e": 1643,
  "\u2581\u0916\u0941\u0936": 1644,
  "\u2581provide": 1645,
  "\u2581kingdom": 1646,
  "\u2581\u0905\u0917\u0932\u0947": 1647,
  "\u2581\u0936\u0930\u0940\u0930": 1648,
  "\u2581People": 1649,
  "\u2581\u092f\u093e\u0915\u0942\u092c": 1650,
  "\u2581document": 1651,
  "\u2581creation": 1652,
  "\u2581\u0930\u093f\u0936\u094d": 1653,
  "\u2581kg": 1654,
  "\u2581greater": 1655,
  "\u2581size": 1656,
  "\u2581action": 1657,
  "\u2581\u0939\u0926": 1658,
  "it": 1659,
  "\u2581\u0905\u0930\u094d\u0925\u093e\u0924\u094d": 1660,
  "\u2581\u0928\u093f\u092f\u092e": 1661,
  "\u2581\u092b\u0948\u0938\u0932\u093e": 1662,
  "\u2581\u0939\u093e\u0938\u093f\u0932": 1663,
  "\u2581\u090f\u0936\u093f\u092f\u093e": 1664,
  "\u2581questions": 1665,
  "\u2581five": 1666,
  "\u2581\u092c\u093f\u0932\u0915\u0941\u0932": 1667,
  "\u2581M": 1668,
  "\u2581\u0928\u0942\u0939": 1669,
  "\u2581\u0938\u091c\u093c\u093e": 1670,
  "\u258130": 1671,
  "\u2581\u092a\u094d\u0932\u0917\u0907\u0928": 1672,
  "\u2581CD": 1673,
  "\u090f\u0915": 1674,
  "\u2581\u090f": 1675,
  "\u2581\u0938\u0941\u0928\u093e": 1676,
  "\u2581\u0938\u094d\u0935\u0940\u0915\u093e\u0930": 1677,
  "\u2581needed": 1678,
  "\u2581\u0915\u0939\u0947\u0902\u0917\u0947": 1679,
  "\u2581Delete": 1680,
  "\u2581authority": 1681,
  "\u2581meetings": 1682,
  "\u2581strong": 1683,
  "\u2581experience": 1684,
  "\u2581small": 1685,
  "\u2581\u0930\u093e\u091c": 1686,
  "This": 1687,
  "\u2581\u0926\u093f\u0916\u093e\u0928\u0947": 1688,
  "\u2581pass": 1689,
  "\u2581self": 1690,
  "\u2581\u0917\u094c\u0930": 1691,
  "\u2581lost": 1692,
  "\u2581tree": 1693,
  "\u2581age": 1694,
  "\u2581\u0906\u0924\u0947": 1695,
  "\u2581Solomon": 1696,
  "\u2581remain": 1697,
  "\u2581\u0928\u093f\u0930\u094d\u0926\u093f\u0937\u094d\u091f": 1698,
  "\u2581\u092c\u0939\u0928": 1699,
  "\u2581\u092c\u093e\u091c\u093c": 1700,
  "\u2581forever": 1701,
  "\u2581pray": 1702,
  "\u2581problems": 1703,
  "\u2581concerning": 1704,
  "\u2581\u0926\u0938\u094d\u0924\u093e\u0935\u0947\u091c\u093c": 1705,
  "\u2581ourselves": 1706,
  "\u2581Isaiah": 1707,
  "\u2581position": 1708,
  "\u2581Lo": 1709,
  "\u2581Adam": 1710,
  "\u2581\u091d\u0942\u0920": 1711,
  "\u2581Address": 1712,
  "\u2581\u0932\u093e\u0932": 1713,
  "\u2581\u0928\u092e\u093e\u091c\u093c": 1714,
  "\u2581\u092f\u0939\u0942\u0926\u0940": 1715,
  "@": 1716,
  "\u0935\u0939": 1717,
  "\u2581\u0928\u093e\u0936": 1718,
  "\u2581\u0938\u093e\u092e\u094d\u0939\u0928\u0947": 1719,
  "\u2581program": 1720,
  "\u2581control": 1721,
  "\u2581\u0926\u0947\u0916\u093f\u090f": 1722,
  "\u2581\u092e\u0941\u0916\u094d\u092f": 1723,
  "\u2581default": 1724,
  "\u2581false": 1725,
  "\u2581Pharaoh": 1726,
  "\u2581talk": 1727,
  "\u2581\u092c\u091a\u093e": 1728,
  "\u2581\u091a\u0932\u0924\u093e": 1729,
  "\u2581prophet": 1730,
  "w": 1731,
  "\u2581Image": 1732,
  "\u2581\u0905\u0924\u093e": 1733,
  "\u2581\u0908\u092e\u0947\u0932": 1734,
  "\u2581\u092c\u0928\u094d\u0926\u094b\u0902": 1735,
  "\u2581\u0939\u093f\u0926\u093e\u092f\u0924": 1736,
  "\u2581fathers": 1737,
  "\u2581happy": 1738,
  "\u2581torment": 1739,
  "\u2581remove": 1740,
  "\u2581\u0915\u0939\u0928\u093e": 1741,
  "Other": 1742,
  "\u2581\u092a\u094d\u0930\u0924\u094d\u092f\u0947\u0915": 1743,
  "\u2581\u0938\u0902\u092a\u093e\u0926\u0915": 1744,
  "\u2581deny": 1745,
  "\u2581\u0915\u0939\u093e\u0901": 1746,
  "\u2581respect": 1747,
  "\u2581\u092c\u092a\u0924\u093f\u0938\u094d\u092e\u093e": 1748,
  "\u2581\u092e\u0941\u0932\u093e\u0915\u093e\u0924": 1749,
  "\u2581obey": 1750,
  "as": 1751,
  "\u2581avoid": 1752,
  "\u2581\u0926\u0947\u0936\u094b\u0902": 1753,
  "\u2581\u0932\u093e": 1754,
  "\u2581\u0930\u0940\u0924\u093f": 1755,
  "\u2581\u0917\u0935\u093e\u0939": 1756,
  "\u2581\u0926\u093f\u0932\u094b\u0902": 1757,
  "\u258124": 1758,
  "\u2581\u0916\u093e\u0928\u0947": 1759,
  "\u2581\u091a\u0947\u0924\u093e\u0935\u0928\u0940": 1760,
  "\u2581\u0924\u0941\u092e\u092a\u0930": 1761,
  "\u2581teaching": 1762,
  "\u2581hold": 1763,
  "\u2581once": 1764,
  "\u2581\u0939\u093e\u0932\u093e\u0924": 1765,
  "\u2581Africa": 1766,
  "\u2581\u092e\u0928\u0941\u0937\u094d\u092f\u094b\u0902": 1767,
  "\u2581\u092a\u0921\u093c": 1768,
  "\u2581saved": 1769,
  "\u258112:": 1770,
  "\u2581\u092a\u0942\u091b\u093e": 1771,
  "\u2581\u0909\u0928\u094d\u0939\u0940\u0902": 1772,
  "\u2581astray": 1773,
  "\u2581\u0915\u093f\u0924\u0928\u0947": 1774,
  "\u2581\u091b\u094b\u091f\u0947": 1775,
  "\u2581\u0935\u093e\u0938\u094d\u0924\u0935": 1776,
  "\u0939\u092e": 1777,
  "\u2581\u0932\u0915\u094d\u0937\u094d\u092f": 1778,
  "\u2581\u0926\u093e\u0938": 1779,
  "\u2581\u092a\u0922\u093c\u0928\u0947": 1780,
  "\u2581\u092f\u093e\u0928\u0940": 1781,
  "\u2581bear": 1782,
  "\u2581\u092f\u0915\u0940\u0928": 1783,
  "\u2581act": 1784,
  "\u2581promised": 1785,
  "\u2581\u0906\u0907\u090f": 1786,
  "\u2581\u0938\u094d\u0924\u0930": 1787,
  "\u0905\u092a\u0928\u0947": 1788,
  "\u2581\u092a\u0936\u094d\u091a\u093e\u0924": 1789,
  "\u2581disbelieve": 1790,
  "\u2581\u0916\u0921\u093c\u093e": 1791,
  "\u2581Organiser": 1792,
  "\u2581\u0905\u0938\u0930": 1793,
  "\u2581\u0928\u092f\u0940": 1794,
  "\u2581written": 1795,
  "\u2581enjoy": 1796,
  "\u2581\u0915\u093f\u0928": 1797,
  "\u2581\u091a\u0941\u0915\u0940": 1798,
  ":%": 1799,
  "\u2581\u0905\u0915\u094d\u0937\u092e": 1800,
  "\u092f\u0939": 1801,
  "\u2581Prophet": 1802,
  "\u2581\u0906\u0926\u0930": 1803,
  "\u2581\u092c\u0948\u0920\u0947": 1804,
  "\u2581\u091c\u0940\u0935\u093f\u0924": 1805,
  "\u2581\u092c\u0928\u094d\u0926": 1806,
  "\u2581ID": 1807,
  "\u2581Merciful": 1808,
  "ers": 1809,
  "\u0924\u0941\u092e": 1810,
  "\u2581\u091a\u0930\u094d\u091a\u093e": 1811,
  "\u2581\u0935\u093f\u0930\u094b\u0927": 1812,
  "\u2581giving": 1813,
  "\u2581\u0938\u091a\u092e\u0941\u091a": 1814,
  "\u2581\u091c\u094b\u0921\u093c": 1815,
  "\u2581\u0938\u093e\u0925\u0940": 1816,
  "\u0924\u094b": 1817,
  "\u2581\u0905\u0928\u0947\u0915": 1818,
  "\u2581\u0906\u0915\u0930": 1819,
  "\u2581\u0909\u0924\u094d\u0924\u092e": 1820,
  "\u2581died": 1821,
  "\u2581Europe": 1822,
  "\u2581glory": 1823,
  "\u2581\u0926\u093f\u0916\u093e\u0924\u093e": 1824,
  "\u2581\u0930\u0926\u094d\u0926": 1825,
  "ic": 1826,
  "\u2581\u0906\u0908": 1827,
  "\u2581Judah": 1828,
  "\u2581\u0905\u0930\u094d\u0925": 1829,
  "\u2581\u0909\u0928\u094d\u0939\u094b\u0902": 1830,
  "3": 1831,
  "\u2581\u0907\u0902\u091a": 1832,
  "\u2581raised": 1833,
  "\u2581taught": 1834,
  "\u0939\u0930\u0917\u093f\u091c\u093c": 1835,
  "\u2581Contact": 1836,
  "\u2581heavenly": 1837,
  "\u2581learned": 1838,
  "\u2581Job": 1839,
  "\u2581option": 1840,
  "\u2581\u0905\u0902\u0924\u093f\u092e": 1841,
  "\".": 1842,
  "\u2581drink": 1843,
  "\u2581apostles": 1844,
  "\u2581reading": 1845,
  "\u2581\u092a\u0942\u0930\u094d\u0935\u093e\u0935\u0932\u094b\u0915\u0928": 1846,
  "\u2581\u0915\u093c\u0938\u092e": 1847,
  "\u2581Set": 1848,
  "\u2581conduct": 1849,
  "V": 1850,
  "k": 1851,
  "\u2581\u092e\u093e\u0930\u093e": 1852,
  "\u2581history": 1853,
  "\u2581whoever": 1854,
  "\u2581\u092e\u093f\u0932\u0924\u093e": 1855,
  "\u2581Israelites": 1856,
  "and": 1857,
  "\u2581\u0932\u093f\u0916\u0928\u0947": 1858,
  "\u0915\u093e": 1859,
  "\u2581\u0932\u0947\u0928\u093e": 1860,
  "\u2581\u092c\u0922\u093c\u0915\u0930": 1861,
  "\u2581question": 1862,
  "\u2581early": 1863,
  "\u2581truly": 1864,
  "\u2581\u0907\u092c\u0930\u093e\u0939\u0940\u092e": 1865,
  "\u2581\u0905\u0915\u0938\u0930": 1866,
  "\u2581write": 1867,
  "\u2581\u0905\u0938\u092e\u0930\u094d\u0925": 1868,
  "\u2581\u0924\u093f\u0925\u093f": 1869,
  "\u2581destroyed": 1870,
  "\u2581\u091a\u092f\u0928": 1871,
  "\u2581\u0932\u0917\u0940": 1872,
  "\u2581\u0906\u092a\u0938": 1873,
  "\u2581needs": 1874,
  "\u2581un": 1875,
  "\u2581head": 1876,
  "\u2581\u0924\u0930\u0940\u0915\u0947": 1877,
  "\u2581\u092e\u0947": 1878,
  "\u2581\u0935\u093e\u0932\u0940": 1879,
  "\u2581\u0938\u093e\u092c\u093f\u0924": 1880,
  "\u2581changed": 1881,
  "\u2581praise": 1882,
  "\u2581\u092f\u0942\u0930\u094b\u092a": 1883,
  "\u2581F": 1884,
  "\u2581guide": 1885,
  "\u2581strength": 1886,
  "\u2581relationship": 1887,
  "\u2581Proverbs": 1888,
  "\u2581unbelievers": 1889,
  "\u093f\u0902\u0917": 1890,
  "\u2581\u092e\u0939\u0940\u0928\u0947": 1891,
  "\u2581\u092d\u0935\u093f\u0937\u094d\u092f": 1892,
  "\u2581\u0909\u092a\u0938\u094d\u0925\u093f\u0924": 1893,
  "\u2581\u092a\u0941\u0938\u094d\u0924\u0915": 1894,
  "\u2581archive": 1895,
  "\u2581\u0928\u093e": 1896,
  "\u2581\u092e\u093e\u0932\u093f\u0915": 1897,
  "\u2581morning": 1898,
  "\u2581\u201d?": 1899,
  "\u2581Mark": 1900,
  "\u2581delete": 1901,
  "\u2581Joseph": 1902,
  "\u2581\u092e\u093e\u0928\u094b": 1903,
  "\u2581Noah": 1904,
  "\u2581\u0938\u091a\u094d\u091a\u0940": 1905,
  "\u2581\u092a\u0939\u091a\u093e\u0928": 1906,
  "\u2581plugin": 1907,
  "\u093f\u0915": 1908,
  "\u2581s": 1909,
  "\u2581\u0938\u0928\u094d\u0924\u093e\u0928": 1910,
  "\u2581\u091c\u093c\u0941\u0932\u094d\u092e": 1911,
  "\u2581\u092c\u0928\u0947": 1912,
  "\u2581felt": 1913,
  "\u2581Muhammad": 1914,
  "\u2581commanded": 1915,
  "\u2581guided": 1916,
  "\u2581returned": 1917,
  "\u2581sense": 1918,
  "\u2581exists": 1919,
  "\u2581\u092f\u0939\u0942\u0926\u093e": 1920,
  "\u2581\u0928\u093f\u0915\u091f": 1921,
  "\u2581sacrifice": 1922,
  "\u2581\u092b\u093c\u093e\u0907\u0932\u0947\u0902": 1923,
  "\u2581temple": 1924,
  "\u2581Egypt": 1925,
  "\u2581kindness": 1926,
  "\u2581images": 1927,
  "\u2581\u092e\u0926": 1928,
  "\u0935\u093e\u0932\u0947": 1929,
  "\u2581\u0935\u092b\u093e\u0926\u093e\u0930": 1930,
  "\u2581\u0938\u093e\u0924": 1931,
  "\u2581forgive": 1932,
  "\u2581understanding": 1933,
  "\u2581rest": 1934,
  "\u2581\u0936\u0940\u0930\u094d\u0937\u0915": 1935,
  "en": 1936,
  "\u2581\u0928\u0940\u0924\u093f\u0935\u091a\u0928": 1937,
  "\u2581taking": 1938,
  "\u2581\u0905\u0924\u093f\u0930\u093f\u0915\u094d\u0924": 1939,
  "\u2581\u092a\u094d\u0930\u093e\u0930\u0942\u092a": 1940,
  "\u2581\u092c\u0924\u093e": 1941,
  "\u2581forgiveness": 1942,
  "\u2581\u0906\u0924\u0940": 1943,
  "\u2581\u0938\u093f\u0930": 1944,
  "\u2581state": 1945,
  "\u2581\u096a": 1946,
  "\u2581allow": 1947,
  "\u2581\u092c\u0922\u093c\u093f\u092f\u093e": 1948,
  "\u2581disbelievers": 1949,
  "\u2581\u0905\u092b\u094d\u0930\u0940\u0915\u093e": 1950,
  "\u2581\u091a\u0940\u091c\u093c\u094b\u0902": 1951,
  "\u2581flesh": 1952,
  "\u0915\u094b": 1953,
  "\u2581\u0938\u091a\u094d\u091a\u093e": 1954,
  "\u2581See": 1955,
  "\u2581\u0906\u0926\u0947\u0936": 1956,
  "\u2581World": 1957,
  "\u2581check": 1958,
  "\u2581listen": 1959,
  "\u0938\u0947": 1960,
  "\u2581\u0917\u093f\u0930\u094b\u0939": 1961,
  "\u2581\u092e\u0939\u093f\u092e\u093e": 1962,
  "\u2581\u096b": 1963,
  "If": 1964,
  "\u2581\u0938\u0916\u094d\u0924": 1965,
  "\u2581members": 1966,
  "\u2581\u0938\u0902\u092a\u093e\u0926\u0928": 1967,
  "\u2581\u0915\u092c": 1968,
  "5": 1969,
  "\u2581\u0928\u093f\u0936\u093e\u0928\u093f\u092f\u093e\u0901": 1970,
  "\u2581\u092b\u093e\u092f\u0926\u093e": 1971,
  "\u2581Start": 1972,
  "\u2581voice": 1973,
  "\u2581\u0906\u0930\u0902\u092d": 1974,
  "\u258121": 1975,
  "\u2581\u0939\u093e\u0932\u0924": 1976,
  "\u25810": 1977,
  "\u2581Corinthians": 1978,
  "\u2581\u0905\u0926\u094d\u092f\u0924\u0928": 1979,
  "\u2581\u0916\u093c\u092c\u0930": 1980,
  "\u2581Creator": 1981,
  "\u2581\u092c\u0941\u0930\u0947": 1982,
  "\u2581\u0906\u0913": 1983,
  "\u092d\u0940": 1984,
  "\u2581\u092d\u0932\u0940": 1985,
  "\u2581\u092d\u0935\u093f\u0937\u094d\u092f\u0935\u093e\u0923\u0940": 1986,
  "est": 1987,
  "\u0907\u0938": 1988,
  "\u2581least": 1989,
  "\u2581\u0935\u093e\u0915\u0908": 1990,
  "\u2581Greek": 1991,
  "\u258110:": 1992,
  "\u2581\u091a\u093f\u0939\u094d\u0928\u093f\u0924": 1993,
  "\u2581\u091a\u0932\u094b": 1994,
  "\u2581blessings": 1995,
  "\u2581\u0938\u0941\u0938\u092e\u093e\u091a\u093e\u0930": 1996,
  "\u2581\u0926\u0942\u0938\u0930\u093e": 1997,
  "\u2581Enable": 1998,
  "\u2581ancient": 1999,
  "\u2581\u092f\u0936\u093e\u092f\u093e\u0939": 2000,
  "\u2581\u092a\u094d\u0930\u0926\u0930\u094d\u0936\u093f\u0924": 2001,
  "\u2581fight": 2002,
  "\u2581\u0906\u0926\u092e": 2003,
  "\u2581\u092a\u093e\u0924\u0947": 2004,
  "\u2581moved": 2005,
  "\u2581Revelation": 2006,
  "\u2581\u0932\u0917": 2007,
  "\u2581offering": 2008,
  "\u2581Display": 2009,
  "\u2581\u091b\u094b\u0921\u093c\u0915\u0930": 2010,
  "\u2581servant": 2011,
  "\u2581sheep": 2012,
  "\u2581kept": 2013,
  "\u2581\u0938\u0924\u094d\u092f\u093e\u092a\u0928": 2014,
  "\u2581Edit": 2015,
  "\u2581\u0924\u0930\u092b\u093c": 2016,
  "\u2581\u092f\u0942\u0938\u0941\u092b": 2017,
  "\u2581Invalid": 2018,
  "\u2581\u092b\u093c\u093f\u0932\u094d\u091f\u0930": 2019,
  "\u258122": 2020,
  "\u2581\u0905\u092d\u093f\u0937\u093f\u0915\u094d": 2021,
  "\u2581event": 2022,
  "\u2581\u0916\u093e\u0924\u0947": 2023,
  "\u2581\u0939\u092e\u0938\u0947": 2024,
  "\u2581\u0905\u0928\u0941\u092a\u094d\u0930\u092f\u094b\u0917": 2025,
  "\u2581Law": 2026,
  "\u2581\u0906\u0928\u0928\u094d\u0926": 2027,
  "\u2581attention": 2028,
  "\u093f\u092f\u093e\u0901": 2029,
  "\u2581\u0938\u0902\u092a\u093e\u0926\u093f\u0924": 2030,
  "\u0915\u093f\u0932": 2031,
  "\u2581Timothy": 2032,
  "\u2581\u0907\u0902\u0938\u093e\u0928\u094b\u0902": 2033,
  "\u2581\u0908\u0936\u094d": 2034,
  "for": 2035,
  "\u2581sight": 2036,
  "\u2581wealth": 2037,
  "G": 2038,
  "\u2581URL": 2039,
  "\u2581six": 2040,
  "\u2581instead": 2041,
  "\u2581real": 2042,
  "\u2581supported": 2043,
  "\u2581IMAP": 2044,
  "\u2581\u0928\u0938\u0940\u0939\u0924": 2045,
  "\u2581wives": 2046,
  "\u2581\u0906\u0938\u093e\u0928": 2047,
  "\u2581judgment": 2048,
  "\u2581\u092a\u0941\u0930\u0941\u0937": 2049,
  "\u2581\u0938\u0940\u0927\u0947": 2050,
  "\u2581\u0936\u093e\u0902\u0924\u093f": 2051,
  "\u2581complete": 2052,
  "\u258111:": 2053,
  "\u2581Enter": 2054,
  "\u2581\u0938\u094d\u0915\u0942\u0932": 2055,
  "\u2581offline": 2056,
  "\u2581situation": 2057,
  "\u2581\u092c\u0939\u0928\u094b\u0902": 2058,
  "\u2581\u0938\u0915\u094d\u0937\u092e": 2059,
  "It": 2060,
  "':": 2061,
  "\u2581choose": 2062,
  "\u2581lie": 2063,
  "\u2581\u0938\u0915\u0947\u0902": 2064,
  "\u2581\u0927\u094d\u0935\u0928\u093f": 2065,
  "\u2581\u092c\u0948\u0920\u0915": 2066,
  "\u2581\u091c\u0932": 2067,
  "\u2581\u0930\u093f\u092a\u094b\u0930\u094d\u091f": 2068,
  "\u2581\u092a\u093e\u090f": 2069,
  "\u2581god": 2070,
  "\u2581sun": 2071,
  "\u2581\u0905\u0935\u0936\u094d\u092f": 2072,
  "\u2581\u0930\u094b\u0915": 2073,
  "\u2581draw": 2074,
  "\u2581\u091a\u0947\u0932\u094b\u0902": 2075,
  "\u2581fall": 2076,
  "\u2581\u0935\u094b": 2077,
  "\u2581especially": 2078,
  "\u2581month": 2079,
  "\u2581\u0926\u0947\u0915\u0930": 2080,
  "\u2581Watchtower": 2081,
  "\u2581\u0922\u0942\u0902\u0922\u0947\u0902": 2082,
  "\u2581\u092e\u093f\u0932\u0947": 2083,
  "\u2581meet": 2084,
  "\u2581\u091c\u093e\u0902\u091a": 2085,
  "\u2581\u092a\u0922\u093c\u093f\u090f": 2086,
  "\u2581\u0938\u0926\u0940": 2087,
  "\u2581wish": 2088,
  "\u2581rather": 2089,
  "\u2581\u092e\u093e\u0930\u094d\u0917\u0926\u0930\u094d\u0936\u0928": 2090,
  "\u2581problem": 2091,
  "\u2581\u0916\u093c\u093e\u0938": 2092,
  "\u25817:": 2093,
  "\u2581\u0932\u093f\u0916": 2094,
  "\u2581\u091c\u093c\u093f\u0915\u094d\u0930": 2095,
  "\u2581belongs": 2096,
  "\u2581due": 2097,
  "\u2581large": 2098,
  "\u2581poor": 2099,
  "\u2581T": 2100,
  "\u2581\u092c\u091f\u0928": 2101,
  "\u2581\u092c\u094b\u091d": 2102,
  "\u2581\u0938\u092e\u0938\u094d\u092f\u093e": 2103,
  "\u0905\u092a\u0928\u0940": 2104,
  "\u2581required": 2105,
  "\u2581\u0908": 2106,
  "\u2581difficult": 2107,
  "\u2581school": 2108,
  "God": 2109,
  "Do": 2110,
  "\u2581Certificate": 2111,
  "\u2581P": 2112,
  "\u2581\u091c\u0939\u0928\u094d\u0928\u0941\u092e": 2113,
  "\u2581\u0935\u093f\u0927\u093f": 2114,
  "ness": 2115,
  "\u2581cast": 2116,
  "\u2581Hereafter": 2117,
  "\u2581behold": 2118,
  "\u2581evidence": 2119,
  "\u2581\u0905\u0928\u0941\u0917\u094d\u0930\u0939": 2120,
  "\u2581\u0938\u0947\u0935\u0915": 2121,
  "\u2581\u0907\u0938\u094d\u0930\u093e\u090f\u0932\u093f\u092f\u094b\u0902": 2122,
  "\u2581special": 2123,
  "\u2581Did": 2124,
  "\u2581feet": 2125,
  "\u2581country": 2126,
  "\u2581\u0938\u092e\u0930\u094d\u0925\u093f\u0924": 2127,
  "New": 2128,
  "\u2581walk": 2129,
  "\u2581\u0930\u0916\u0947": 2130,
  "\u2581form": 2131,
  "\u25814.": 2132,
  "\u2581cut": 2133,
  "\u2581\u0938\u092c\u0915\u094b": 2134,
  "is": 2135,
  "\u091f": 2136,
  "\u2581based": 2137,
  "\u2581easy": 2138,
  "\u2581pay": 2139,
  "\u2581single": 2140,
  "\u2581past": 2141,
  "\u2581\u0916\u093e\u0928\u093e": 2142,
  "\u2581\u0938\u0930": 2143,
  "\u2581teach": 2144,
  "\u2581wait": 2145,
  "\u0915\u093f": 2146,
  "\u2581\u092f\u0941": 2147,
  "\u2581\u0928\u093f\u092f\u0924": 2148,
  "\u2581friend": 2149,
  "\u2581video": 2150,
  "\u2581\u092b\u0947\u0930": 2151,
  "\u2581\u0906\u092e": 2152,
  "\u2581deal": 2153,
  "\u2581baptized": 2154,
  "\u2581\u0930\u094b\u091c\u093c\u0940": 2155,
  "\u2581Since": 2156,
  "\u2581\u0938\u094d\u0924\u094d\u0930\u093f\u092f\u094b\u0902": 2157,
  "\u2581matters": 2158,
  "\u2581Paradise": 2159,
  "\u2581followed": 2160,
  "\u2581\u091c\u093c\u094b\u0930": 2161,
  "\u2581wanted": 2162,
  "\u2581\u0926\u0940\u091c\u093f\u090f": 2163,
  "\u2581\u0935\u0930\u094d\u0917": 2164,
  "\u2581\u092a\u0921\u093c\u0924\u093e": 2165,
  "\u2581enough": 2166,
  "\u2581shown": 2167,
  "\u2581followers": 2168,
  "\u2581\u0939\u091f\u093e\u090f\u0901": 2169,
  "\u2581Project": 2170,
  "\u2581\u0915\u093c\u092f\u093e\u092e\u0924": 2171,
  "\u2581\u0938\u093e\u0932\u094b\u0902": 2172,
  "\u2581events": 2173,
  "\u2581\u091a\u093e\u0939\u0947\u0902\u0917\u0947": 2174,
  "\u2581Unknown": 2175,
  "\u2581divine": 2176,
  "\u2581version": 2177,
  "\u2581{0}": 2178,
  "\u2581\u091c\u093c\u093f\u092e\u094d\u092e\u0947\u0926\u093e\u0930\u0940": 2179,
  "\u2581\u0938\u092b\u0947\u0926": 2180,
  "\u0909\u0938": 2181,
  "\u2581opened": 2182,
  "\u2581\u0926\u0943\u0937\u094d\u091f\u093f": 2183,
  "\u2581Luke": 2184,
  "\u2581\u0909\u092e\u094d\u0930": 2185,
  "\u2581Copy": 2186,
  "\u2581\u0930\u0916\u0940": 2187,
  "My": 2188,
  "\u2581serving": 2189,
  "\u2581\u0938\u0902\u0917\u0920\u0928": 2190,
  "\u2581\u0938\u092e\u091d\u093e": 2191,
  "\u2581perfect": 2192,
  "\u2581offer": 2193,
  "\u2581\u092d\u094b\u091c\u0928": 2194,
  "\u2581slave": 2195,
  "\u2581thinking": 2196,
  "\u2581\u0926\u0940\u0928": 2197,
  "\u2581contains": 2198,
  "\u2581\u0938\u0902\u0932\u0917\u094d\u0928\u0915": 2199,
  "\u2581\u0938\u0941\u0932\u0948\u092e\u093e\u0928": 2200,
  "\u2581\u0926\u094b\u092c\u093e\u0930\u093e": 2201,
  "\u2581gods": 2202,
  "\u2581\u0936\u0915\u093c": 2203,
  "\u2581H": 2204,
  "\u2581\u0926\u0938": 2205,
  "\u2581\u092c\u094b\u0932": 2206,
  "\u2581\u0926\u092f\u093e": 2207,
  "\u2581\u0928\u0939\u0940": 2208,
  "\u2581Thou": 2209,
  "\u2581happened": 2210,
  "\u2581While": 2211,
  "\u2581gone": 2212,
  "\u2581pane": 2213,
  "\u2581\u091f\u0948\u092c": 2214,
  "\u2581\u092c\u093e\u0935\u091c\u0942\u0926": 2215,
  "\u2581judge": 2216,
  "\u2581likely": 2217,
  "].": 2218,
  "\u2581\u0918\u0930\u094b\u0902": 2219,
  "\u2581\u091a\u093f\u0924\u094d\u0930": 2220,
  "\u2581LDAP": 2221,
  "\u2581prayers": 2222,
  "\u2581\u0926\u0941\u0937\u094d\u091f": 2223,
  "\u2581\u0915\u093c\u093f\u0938\u094d\u092e": 2224,
  "\u2581\u091c\u0932\u094d\u0926\u0940": 2225,
  "\u2581\u092c\u0947": 2226,
  "\u2581health": 2227,
  "\u2581\u0909\u092a\u0915\u0930\u0923": 2228,
  "\u2581\u092a\u093f\u091b\u0932\u0947": 2229,
  "\u2581answered": 2230,
  "\u2581\u091c\u093c\u0930\u093e": 2231,
  "\u2581\u0936\u0941\u0930\u0942\u0906\u0924": 2232,
  "\u2581R": 2233,
  "\u2581copy": 2234,
  "\u2581everlasting": 2235,
  "\u2581hundred": 2236,
  "\u2581suffering": 2237,
  "\u2581\u092e\u0942\u0932\u094d\u092f": 2238,
  "\u2581\u092e\u0939\u093e\u0928": 2239,
  "\u2581certificate": 2240,
  "\u2581\u0939\u091f\u093e": 2241,
  "\u2581Default": 2242,
  "\u2581United": 2243,
  "\u2581\u092a\u094d\u0930\u0947\u0937\u093f\u0924": 2244,
  "\u2581\u0935\u0939\u093e\u0902": 2245,
  "--": 2246,
  "\u2581\u0938\u0930\u0915\u0936": 2247,
  "\u2581\u092a\u093e\u0932\u0928": 2248,
  "\u2581\u092e\u0915\u0938\u0926": 2249,
  "\u2581caused": 2250,
  "\u2581\u092e\u091c\u093c\u093e": 2251,
  "\u2581spoke": 2252,
  "all": 2253,
  "\u25812.": 2254,
  "\u2581accepted": 2255,
  "\u2581deleted": 2256,
  "\u2581similar": 2257,
  "\u2581\u0921\u093e\u0909\u0928\u0932\u094b\u0921": 2258,
  "v": 2259,
  "\u2581desires": 2260,
  "\u2581either": 2261,
  "\u2581\u091b\u094b\u091f\u093e": 2262,
  "\u2581\u0907\u0924\u0928\u0940": 2263,
  "\u2581\u0916\u0924\u094d\u092e": 2264,
  "\u2581Consider": 2265,
  "\u2581Does": 2266,
  "\u2581\u0905\u0917\u0932\u093e": 2267,
  "\u2581Only": 2268,
  "\u2581\u0909\u092e\u094d\u092e\u0940\u0926": 2269,
  "\u2581\u0928\u093f\u0936\u093e\u0928\u0940": 2270,
  "\u2581\u096c": 2271,
  "\u2581POP": 2272,
  "\u091c": 2273,
  "\u2581further": 2274,
  "\u2581\u0932\u0947\u0924\u093e": 2275,
  "\u2581\u0935\u093e": 2276,
  "\u2581\u091a\u0932\u0928\u0947": 2277,
  "\u2581thereof": 2278,
  "\u2581\u0932\u093e\u092d": 2279,
  "\u2581months": 2280,
  "\u2581e": 2281,
  "\u2581\u092a\u0925": 2282,
  "\u2581resurrection": 2283,
  "\u2581\u092e\u093f\u091f\u094d\u091f\u0940": 2284,
  "\u2581\u0935\u0930\u094d\u0923\u0928": 2285,
  "\u2581\u092e\u0941\u091d\u0938\u0947": 2286,
  "\u2581format": 2287,
  "\u2581Today": 2288,
  "\u2581\u092a\u094d\u0930\u0947\u0930\u093f\u0924\u094b\u0902": 2289,
  "\u0905\u0932\u094d\u0932\u093e\u0939": 2290,
  "\u2581pages": 2291,
  "\u2581married": 2292,
  "\u2581\u0935\u093f\u0935\u0930\u0923": 2293,
  "\u2581reach": 2294,
  "\u2581\u0935\u093f\u0936\u094d\u0935\u093e\u0938": 2295,
  "\u2581Hell": 2296,
  "\u2581\u0917\u0940\u0924": 2297,
  "\u2581\u0935\u0947\u092c": 2298,
  "\u2581thousand": 2299,
  "\u2581sky": 2300,
  "\u25aa": 2301,
  "\u2581Although": 2302,
  "\u2581play": 2303,
  "\u2581\u0926\u093f\u0916\u093e\u0924\u0947": 2304,
  "\u2581\u0939\u093f\u092e\u094d\u092e\u0924": 2305,
  "\u2581manifest": 2306,
  "\u2581\u0938\u0947\u0935\u0915\u094b\u0902": 2307,
  "\u2581\u0906\u0936\u0940\u0937": 2308,
  "\u2581\u092a\u093e\u0915": 2309,
  "\u2581\u092e\u093e\u0930\u0947": 2310,
  "\u2581\u0932\u094c\u091f": 2311,
  "\u2581names": 2312,
  "He": 2313,
  "\u2581Resurrection": 2314,
  "\u2581\u092c\u0924\u093e\u0924\u0940": 2315,
  "\u2581\u0906\u090f\u0917\u093e": 2316,
  "\u2581\u092d\u093e\u0930\u0940": 2317,
  "\u2581\u0924\u0941\u0932\u0928\u093e": 2318,
  "\u25813.": 2319,
  "\u2581lived": 2320,
  "\u2581Line": 2321,
  "\u2581besides": 2322,
  "\u2581states": 2323,
  "\u2581\u0906\u092f\u0924\u0947\u0902": 2324,
  "\u2581\u0915\u0941\u0932": 2325,
  "h": 2326,
  "\u2581Time": 2327,
  "\u2581run": 2328,
  "\u2581onto": 2329,
  "\u2581\u0905\u0928\u0941\u0935\u093e\u0926": 2330,
  "\u2581\u091c\u093e\u0928\u0928\u0947": 2331,
  "\u2581specified": 2332,
  "\u2581\u092d\u0935\u0928": 2333,
  "\u2581enemies": 2334,
  "\u2581shows": 2335,
  "\u2581working": 2336,
  "\u2581report": 2337,
  "\u2581\u0916\u093c\u0941\u0926": 2338,
  "\u2581\u091d\u0941\u0920\u0932\u093e\u092f\u093e": 2339,
  "\u2581Mail": 2340,
  "\u2581\u0907\u0915\u091f\u094d\u0920\u093e": 2341,
  "\u2581sister": 2342,
  "\u2581\u091c\u093f\u0938\u0915\u094b": 2343,
  "\u2581\u091c\u0928": 2344,
  "\u2581\u092d\u0942\u092e\u093f": 2345,
  "quot": 2346,
  "\u2581Work": 2347,
  "\u2581attitude": 2348,
  "\u2581\u0915\u0949\u0932": 2349,
  "\u2581\u0916\u093c\u0930\u094d\u091a": 2350,
  "\u2581\u0926\u093f\u0916\u093e\u092f\u0947\u0902": 2351,
  "\u2581\u092f\u0939\u0942\u0926\u093f\u092f\u094b\u0902": 2352,
  "\u092a\u0930\u092e\u0947\u0936\u094d": 2353,
  "\u0939\u093f\u0938\u093e\u092c": 2354,
  "\u2581mountains": 2355,
  "\u2581including": 2356,
  "\u2581\u0935\u0948\u0938\u0947": 2357,
  "\u2581justice": 2358,
  "\u2581term": 2359,
  "\u2581fully": 2360,
  "\u2581\u091c\u0948\u0938\u0940": 2361,
  "\u2581\u0926\u093f\u0916\u093e\u0908": 2362,
  "\u2581component": 2363,
  "What": 2364,
  "\u2581build": 2365,
  "\u2581showed": 2366,
  "\u2581gain": 2367,
  "\u2581Acts": 2368,
  "\u2581;": 2369,
  "\u2581\u0924\u094c\u092c\u093e": 2370,
  "\u2581\u092a\u0938": 2371,
  "\u2581\u092e\u093e\u0928\u093e": 2372,
  "\u2581feelings": 2373,
  "\u2581spend": 2374,
  "\u2581Hebrew": 2375,
  "\u2581\u0918\u0921\u093c\u0940": 2376,
  "\u2581blessed": 2377,
  "\u258110.": 2378,
  "\u2581inspired": 2379,
  "\u2014": 2380,
  "\u2581\u0921\u0930\u0924\u0947": 2381,
  "\u2581\u0938\u094c": 2382,
  "\u2581happiness": 2383,
  "\u2581area": 2384,
  "\u2581\u092c\u0928\u093e\u0915\u0930": 2385,
  "\u2581\u0935\u094d\u092f\u0935\u0939\u093e\u0930": 2386,
  "\u2581\u0906\u0935\u093e\u091c\u093c": 2387,
  "\u2581\u092e\u093f\u091f\u093e": 2388,
  "\u2581painful": 2389,
  "\u2581Y": 2390,
  "\u2581passed": 2391,
  "\u2581\u0936\u0916\u093c\u094d\u0936": 2392,
  "\u2581Send": 2393,
  "\u2581Close": 2394,
  "\u2581priest": 2395,
  "\u258115,": 2396,
  "\u2581\u091b\u094b\u091f\u0940": 2397,
  "\u2581\u0907\u092c\u093e\u0926\u0924": 2398,
  "1": 2399,
  "\u2581\u0924\u0940\u092e\u0941\u0925\u093f\u092f\u0941\u0938": 2400,
  "\u2581Well": 2401,
  "\u0926\u0941\u0928\u093f\u092f\u093e": 2402,
  "\u2581\u0921\u093e\u091f\u093e": 2403,
  "\u2581effect": 2404,
  "\u2581places": 2405,
  "\u2581started": 2406,
  "\u2581\u0938\u0940\u0916": 2407,
  "\u2581Romans": 2408,
  "\u2581\u092c\u0928\u0940": 2409,
  "\u2581kill": 2410,
  "\u2581towards": 2411,
  "\u2581\u092a\u0939\u0932\u093e": 2412,
  "\u2581led": 2413,
  "\u2581perhaps": 2414,
  "\u2581public": 2415,
  ",\"": 2416,
  "ion": 2417,
  "\u0938\u092c": 2418,
  "\u2581K": 2419,
  "\u2581\u092a\u094d\u0932\u0917\u093f\u0928": 2420,
  "\u2581\u0905\u0928\u094d\u0924": 2421,
  "\u2581\u0936\u093e\u0938\u094d\u0924\u094d\u0930": 2422,
  "\u2581\u0938\u0902\u0917": 2423,
  "\u2581item": 2424,
  "\u2581\u0928\u093f\u091c\u0940": 2425,
  "\u2581\u0939\u0943\u0926\u092f": 2426,
  "\u2581\u092c\u093f\u0932\u094d\u0915\u0941\u0932": 2427,
  "\u258133": 2428,
  "\u2581rule": 2429,
  "\u2581\u0936\u093e\u0928\u094d\u0924\u093f": 2430,
  "W": 2431,
  "\u2581longer": 2432,
  "\u2581\u092a\u093e\u090f\u0901\u0917\u0947": 2433,
  "\u2581chosen": 2434,
  "\u2581killed": 2435,
  "\u2581\u0967\u0966": 2436,
  "Allah": 2437,
  "\u2581Jacob": 2438,
  "\u2581\u092e\u0941\u0902\u0939": 2439,
  "\u2581lies": 2440,
  "\u2581sisters": 2441,
  "\u2581James": 2442,
  "\u2581Synchronising": 2443,
  "\u2581stay": 2444,
  "\u2581\u092e\u0947\u0939\u0928\u0924": 2445,
  "\u091c\u093c": 2446,
  "\u2581regarding": 2447,
  "\u2581\u0926": 2448,
  "\u2581Remember": 2449,
  "\u2581\u0938\u092d\u093e\u0913\u0902": 2450,
  "\u0939": 2451,
  "\u2581\u0927\u0928": 2452,
  "\u2581\u0938\u094d\u0935\u0924\u0903": 2453,
  "us": 2454,
  "\u2581warning": 2455,
  "\u2581\u092d\u0947\u0902\u091f": 2456,
  "\u2581Organisation": 2457,
  "\u2581speaking": 2458,
  "\u2581Type": 2459,
  "\u2581\u0932\u093f\u0902\u0915": 2460,
  "\u2581connect": 2461,
  "\u2581\u092a\u0942\u0930\u094d\u0935": 2462,
  "\u2581prepared": 2463,
  "\u2581\u092e\u0902\u0921\u0932\u0940": 2464,
  "\u2581fruit": 2465,
  "\u2581\u092c\u0924\u093e\u0924\u093e": 2466,
  "\u2581Mary": 2467,
  "\u2581memo": 2468,
  "\u2581\u0932\u0942\u0915\u093e": 2469,
  "\u2581load": 2470,
  "\u2581\u0967\u096b": 2471,
  "\u2581\u0926\u0941\u0906": 2472,
  "\u2581\u0935\u0948\u0938\u093e": 2473,
  "\u2581\u0938\u0926\u0938\u094d\u092f": 2474,
  "\u2581blessing": 2475,
  "\u2581location": 2476,
  "\u2581select": 2477,
  "\u2581principles": 2478,
  "\u2581Saul": 2479,
  "\u258123": 2480,
  "\u2581\u0915\u094d\u0930\u093f\u092f\u093e": 2481,
  "\u2581\u092a\u094d\u0930\u0924\u0940\u0915": 2482,
  "\u2581harm": 2483,
  "\u2581\u091d\u0942\u0920\u0947": 2484,
  "\u2581\u092b\u094b\u0928": 2485,
  "\u2581Last": 2486,
  "\u2581daughter": 2487,
  "\u2581itself": 2488,
  "\u2581mighty": 2489,
  "\u2581\u096e": 2490,
  "\u2581involved": 2491,
  "\u2581\u092c\u0932\u093f\u0926\u093e\u0928": 2492,
  "\u2581\u092a\u094d\u0930\u0915\u093e\u0936\u093f\u0924\u0935\u093e\u0915\u094d\u092f": 2493,
  "\u2581\u0915\u0926\u092e": 2494,
  "\u25818.": 2495,
  "\u2581\u0924\u0902\u0924\u094d\u0930": 2496,
  "\u2581mentioned": 2497,
  "\u2581re": 2498,
  "\u2581regular": 2499,
  "\u2581\u0926\u0938\u094d\u0924\u093e\u0935\u0947\u091c": 2500,
  "\u2581application": 2501,
  "\u2581Make": 2502,
  "\u2581\u092b\u093c\u0948\u0938\u0932\u093e": 2503,
  "\u25815.": 2504,
  "\u2581\u0928\u092c\u0940": 2505,
  "\u2581interest": 2506,
  "\u2581Options": 2507,
  "\u2581\u0915\u093e\u092b\u093c\u093f\u0930": 2508,
  "\u2581art": 2509,
  "\u2581\u092e\u093f\u0932\u0915\u0930": 2510,
  "\u2581\u0935\u093e\u092f\u0926\u093e": 2511,
  "\u2581\u092b\u093c\u0949\u0928\u094d\u091f": 2512,
  "\u2581x": 2513,
  "\u2581\u0911\u092b\u093c\u0932\u093e\u0907\u0928": 2514,
  "\u2581\u0938\u0924\u094d\u0930": 2515,
  "\u2581white": 2516,
  "\u2581\u0936\u0941\u0926\u094d\u0927": 2517,
  "\u0938\u0940": 2518,
  "\u2581\u0927\u0940\u0930\u091c": 2519,
  "\u2581\u0936\u0940\u0930\u094d\u0937\u093f\u0915\u093e": 2520,
  "\u2581status": 2521,
  "\u2581\u0926\u0941\u0903\u0916": 2522,
  "\u2581Rather": 2523,
  "\u2581anger": 2524,
  "\u2581named": 2525,
  "\u2581\u092c\u0932": 2526,
  "\u0939\u0930": 2527,
  "\u2581etc": 2528,
  "\u2581cities": 2529,
  "\u2581patient": 2530,
  "\u2581Daniel": 2531,
  "\u2581gold": 2532,
  "\u2581response": 2533,
  "\u2581\u0938\u0926\u093e": 2534,
  "\u2581myself": 2535,
  "\u2581\u092b\u0941\u091f\u0928\u094b": 2536,
  "\u2581\u0909\u091a\u093f\u0924": 2537,
  "\u2581\u0905\u0928\u0941\u092d\u0935": 2538,
  "\u2581\u092a\u093e\u0930": 2539,
  "\u258126": 2540,
  "\u25813,": 2541,
  "\u2581\u0938\u0941\u0928\u0928\u0947": 2542,
  "\u2581Text": 2543,
  "\u0915\u093c\u092f\u093e\u092e\u0924": 2544,
  "\u2581\u0905\u0938\u0932": 2545,
  "\u2581colour": 2546,
  "\u2581\u0920\u093f\u0915\u093e\u0928\u093e": 2547,
  "\u2581\u0939\u093e\u0925\u094b\u0902": 2548,
  "\u2581\u0938\u0940\u092e\u093e": 2549,
  "\u2581\u0967\u0968": 2550,
  "\u2581destroy": 2551,
  "\u2581\u0917\u093f\u0930": 2552,
  "\u2581\u091c\u093e\u090f\u0902": 2553,
  "\u2581\u092e\u0942\u0932": 2554,
  "\u2581didn": 2555,
  "\u2581revelations": 2556,
  "\u2581\u091c\u093f\u0928\u092e\u0947\u0902": 2557,
  "\u2581Like": 2558,
  "\u2581speech": 2559,
  "\u2581\u092a\u094d\u0930\u091c\u093e": 2560,
  "\u2581HTML": 2561,
  "\u2581hour": 2562,
  "\u2581Babylon": 2563,
  "\u2581test": 2564,
  "\u2581\u0932\u093f\u0916\u0940": 2565,
  "\u2581\u0905\u092f\u094d\u092f\u0942\u092c": 2566,
  "\u0940\u092f": 2567,
  "\u2581\u0927\u0928\u094d\u092f\u0935\u093e\u0926": 2568,
  "\u2581\u0924\u0930\u0940\u0915\u093e": 2569,
  "\u2581\u092d\u0940\u0921\u093c": 2570,
  "\u2581denied": 2571,
  "\u2581honor": 2572,
  "\u2581presence": 2573,
  "\u2581space": 2574,
  "\u2581\u0939\u093e\u091c\u093c\u093f\u0930": 2575,
  "\u2581\u0909\u0926\u094d\u0927\u093e\u0930": 2576,
  "\u2581clean": 2577,
  "\u2581\u092a\u094d\u0930\u0915\u091f": 2578,
  "\u2581\u0938\u092e\u0941\u0926\u094d\u0930": 2579,
  "\u2581editor": 2580,
  "\u2581else": 2581,
  "\u2581\u091c\u093c\u094d\u092f\u093e\u0926\u093e\u0924\u0930": 2582,
  "\u2581\u0915\u093e\u092b\u093c\u0940": 2583,
  "\u25818:": 2584,
  "\u2581\u092d\u0942\u0932": 2585,
  "4": 2586,
  "\u258114.": 2587,
  "\u2581shal": 2588,
  "\u2581\u0915\u093e\u0928": 2589,
  "\u2581\u092e\u093e\u0928\u0928\u093e": 2590,
  "\u2581\u0938\u0940\u0921\u0940": 2591,
  "\u2581\u0926\u0947\u0916\u0924\u093e": 2592,
  "\u2581equal": 2593,
  "\u2581grow": 2594,
  "\u092f\u0926\u093f": 2595,
  "\u2581\u0938\u093e\u0930\u093e": 2596,
  "\u2581\u092e\u093e\u0901\u0917": 2597,
  "\u2581considered": 2598,
  "\u2581\u0907\u092c\u094d\u0930\u093e\u0939\u0940\u092e": 2599,
  "\u2581settings": 2600,
  "\u2581gift": 2601,
  "\u2581\u0932\u093e\u0928\u0947": 2602,
  "\u091c\u092c": 2603,
  "\u2581\u092c\u0947\u091f\u093e": 2604,
  "\u2581Find": 2605,
  "\u2581\u0926\u093e\u0916\u093f\u0932": 2606,
  "\u2581\u091c\u093c\u093e\u0932\u093f\u092e": 2607,
  "\u2581calls": 2608,
  "\u2581loved": 2609,
  "\u092a\u093f": 2610,
  "\u2581DVD": 2611,
  "\u2581button": 2612,
  "\u2581Footnote": 2613,
  "\u2581\u0914": 2614,
  "\u2581priests": 2615,
  "\u2581\u091a\u093e\u0930\u094b\u0902": 2616,
  "\u2581Import": 2617,
  "\u2581\u0938\u0926\u0938\u094d\u092f\u0924\u093e": 2618,
  "\u2581URI": 2619,
  "\u25817.": 2620,
  "\u2581common": 2621,
  "\u2581\u0909\u0938\u092a\u0930": 2622,
  "\u2581\u0938\u092e\u091d\u0928\u0947": 2623,
  "\u2581Home": 2624,
  "\u2581\u091c\u0930\u0942\u0930\u0924": 2625,
  "\u2581\u092a\u0939\u093e\u0921\u093c": 2626,
  "\u2581GNOME": 2627,
  "\u2581\u091a\u0941\u0928\u093e": 2628,
  "\u2581\u0926\u093e\u0928": 2629,
  "\u2581verses": 2630,
  "\u2581\u0911\u0921\u093f\u092f\u094b": 2631,
  "\u2581\u092a\u0930\u0940\u0915\u094d\u0937\u093e": 2632,
  "\u2581everyone": 2633,
  "\u2581L": 2634,
  "\u2581letter": 2635,
  "\u2581Click": 2636,
  "\u2581contacts": 2637,
  "\u2581\u092a\u094d\u0930\u092d\u093e\u0935": 2638,
  "\u2581\u0916\u094d\u092f\u093e\u0932": 2639,
  "\u2581\u0920\u0939\u0930\u093e\u092f\u093e": 2640,
  "\u2581enemy": 2641,
  "\u2581material": 2642,
  "\u2581organization": 2643,
  "\u2581\u092a\u0941\u0924\u094d\u0930": 2644,
  "\u2581\u0908\u092e\u093e\u0928\u0926\u093e\u0930\u094b\u0902": 2645,
  "\u2581exist": 2646,
  "\u2581simply": 2647,
  "\u2581\u0924\u0938\u0935\u0940\u0930\u0947": 2648,
  "\u2581\u0938\u0902\u0938\u094d\u0925\u093e\u092a\u093f\u0924": 2649,
  "\u2581\u0917\u093c\u0930\u091c\u093c": 2650,
  "\u2581\u091c\u093e\u0913\u0917\u0947": 2651,
  "\u2581less": 2652,
  "\u2581\u092c\u093e\u0924\u091a\u0940\u0924": 2653,
  "\u2581born": 2654,
  "\u2581prophecy": 2655,
  "\u2581\u0907\u0928\u092e\u0947\u0902": 2656,
  "\u2581Number": 2657,
  "\u2581period": 2658,
  "\u2581\u092a\u094d\u0930\u092e\u093e\u0923": 2659,
  "\u2581\u092e\u093e\u0928\u0928\u0947": 2660,
  "\u258112.": 2661,
  "\u2581initialise": 2662,
  "\u2581carry": 2663,
  "\u2581\u0938\u093e\u092b\u093c": 2664,
  "at": 2665,
  "\u2581\u092a\u094d\u0930\u092c\u0902\u0927\u0915": 2666,
  "\u2581\u0938\u092c\u094d\u0930": 2667,
  "\u2581\u0930\u0939\u0924\u0940": 2668,
  "\u2581apply": 2669,
  "\u2581process": 2670,
  "\u2581\u092c\u0928\u0928\u0947": 2671,
  "\u2581hell": 2672,
  "\u2581Where": 2673,
  "\u2581\u092a\u093e\u0928": 2674,
  "\u2581spiritually": 2675,
  "\u2581suffer": 2676,
  "\u2581\u091f\u094d\u0930\u0948\u0915": 2677,
  "\u258115:": 2678,
  "\u2581Children": 2679,
  "\u2581allowed": 2680,
  "\u2581\u091c\u0935\u093e\u0928": 2681,
  "\u2581\u092f\u0939\u093e\u0902": 2682,
  "\u2581\u092a\u0941\u0930\u093e\u0928\u0947": 2683,
  "\u2581Calendar": 2684,
  "\u2581\u092c\u093e\u0932": 2685,
  "\u093f": 2686,
  "\u2581\u0938\u0939\u0947\u091c": 2687,
  "\u092f\u0939\u094b\u0935\u093e": 2688,
  "\u2581deep": 2689,
  "\u2581\u092a\u0935\u093f\u0924\u094d\u0930\u093e": 2690,
  "\u0939\u093e\u0932\u0949\u0915\u093f": 2691,
  "\u2581Just": 2692,
  "\u2581Truth": 2693,
  "\u2581seem": 2694,
  "\u2581\u091c\u0928\u094d\u092e": 2695,
  "\u2581added": 2696,
  "\u258131": 2697,
  "\u0936": 2698,
  "\u2581values": 2699,
  "\u2581comfort": 2700,
  "\u2581individuals": 2701,
  "\u2581\u0916\u093f\u0932\u093e\u092b": 2702,
  "\u092a": 2703,
  "\u2581delivered": 2704,
  "\u2581valid": 2705,
  "\u2581\u0928\u093f\u0936\u094d": 2706,
  "\u2581\u0908\u0902\u091f": 2707,
  "\u2581\u0915\u0930\u0942\u0902\u0917\u093e": 2708,
  "\u2581\u0928\u093f\u0937\u094d\u0915\u094d\u0930\u093f\u092f": 2709,
  "\u2581\u092a\u094d\u0930\u0935\u0947\u0936": 2710,
  "\u2581\u0932\u0917\u092d\u0917": 2711,
  "\u2581operation": 2712,
  "\u2581\u092a\u0922\u093c": 2713,
  "\u2581appointment": 2714,
  "\u2581Server": 2715,
  "\u2581\u0917\u0941\u092e\u0930\u093e\u0939\u0940": 2716,
  "\u2581\u0938\u094d\u0935\u091a\u093e\u0932\u093f\u0924": 2717,
  "\u2581\u0915\u0928\u0947\u0915\u094d\u0936\u0928": 2718,
  "\u2581According": 2719,
  "\u2581\u0932\u093f\u0916\u0947\u0902": 2720,
  "\u2581beyond": 2721,
  "\u258111.": 2722,
  "\u2581preview": 2723,
  "\u2581\u092e\u0947\u0939\u0930\u092c\u093e\u0928": 2724,
  "\u2581\u0916\u0942\u092c": 2725,
  "\u2581actions": 2726,
  "\u2581\u0926\u0941\u0916": 2727,
  "\u2581unjust": 2728,
  "\u2581\u091c\u093c\u092c\u0930\u0926\u0938\u094d\u0924": 2729,
  "\u2581\u092c\u0922\u093c\u093e": 2730,
  "\u2581object": 2731,
  "\u2581\u091a\u0941\u0928\u0947": 2732,
  "\u0926\u093e\u0930": 2733,
  "\u2581firm": 2734,
  "\u2581powerful": 2735,
  "\u2581\u0928\u094d\u092f\u0942": 2736,
  "\u2581\u0926\u094b\u0937": 2737,
  "\u2581\u0924\u0930\u094d\u0915": 2738,
  "\u2581Messengers": 2739,
  "\u2581fill": 2740,
  "\u2581week": 2741,
  "\u25819.": 2742,
  "\u2581U": 2743,
  "\u2581True": 2744,
  "\u2581\u0917\u093f\u0928\u0924\u0940": 2745,
  "\u2581\u092d\u0947\u091c\u0947": 2746,
  "\u2581\u0938\u0902\u0915\u0947\u0924": 2747,
  "\u2581Hebrews": 2748,
  "\u2581\u0905\u0935\u0927\u093f": 2749,
  "\u2581\u0916\u094b\u0932\u0928\u0947": 2750,
  "\u2581\u0938\u0902\u092c\u0902\u0927": 2751,
  "\u2581increase": 2752,
  "\u2581tasks": 2753,
  "\u2581\u092e\u093f\u0928\u091f": 2754,
  "\u2581\u0916\u093e": 2755,
  "\u2581\u0915\u0941\u0930\u093f\u0928\u094d\u0925\u093f\u092f\u094b\u0902": 2756,
  "\u2581Page": 2757,
  "\u0928\u0947\u0935\u093e\u0932\u0947": 2758,
  "\u2581ready": 2759,
  "\u2581\u0905\u0927\u093f\u0915\u0924\u092e": 2760,
  "\u2581chastisement": 2761,
  "\u2581\u092d\u0930\u0940": 2762,
  "\u2581tried": 2763,
  "\u2581\u0915\u0921\u093c\u0940": 2764,
  "\u2581\u0925\u094b\u0921\u093c\u093e": 2765,
  "\u2581\u096d": 2766,
  "\u2581Quran": 2767,
  "\u2581destruction": 2768,
  "\u2581families": 2769,
  "\u2581\u092a\u093e\u092f\u0928\u093f\u092f\u0930": 2770,
  "\u2581Devil": 2771,
  "\u2581mouth": 2772,
  "\u2581May": 2773,
  "\u2581measure": 2774,
  "\u2581rejected": 2775,
  "\u2581\u092d\u0947\u091c\u0928\u0947": 2776,
  "\u2581\u092a\u094d\u0930\u0924\u093f\u0936\u0924": 2777,
  "\u2581Wise": 2778,
  "\u2581established": 2779,
  "\u2581\u0907\u0924\u0928\u0947": 2780,
  "\u092b\u093f\u0930": 2781,
  "\u2581reminder": 2782,
  "\u2581\u0905\u092e\u0930\u0940\u0915\u093e": 2783,
  "\u2581messengers": 2784,
  "\u2581Dur": 2785,
  "el": 2786,
  "\u2581Exchange": 2787,
  "\u2581\u0938\u0941\u0928\u0924\u0947": 2788,
  "\u2581\u0932\u0947\u0916\u0915": 2789,
  "\u2581\u0936\u093e\u090a\u0932": 2790,
  "\u2581\u0967\u0967": 2791,
  "\u2581brings": 2792,
  "\u2581Other": 2793,
  "\u2581wants": 2794,
  "\u2581\u0935\u093e\u091a\u093e": 2795,
  "\u0921": 2796,
  "\u2581G": 2797,
  "\u2581third": 2798,
  "\u2581\u0915\u0943\u092a\u093e": 2799,
  "\u0939\u0947": 2800,
  "\u2581filled": 2801,
  "\u2581godly": 2802,
  "\u2581\u092a\u0915\u0921\u093c": 2803,
  "\u2581ago": 2804,
  "\u2581\u0938\u092e\u094d\u092e\u093e\u0928": 2805,
  "\u2581clearly": 2806,
  "\u2581older": 2807,
  "\u2581serious": 2808,
  "\u2581\u091c\u093f\u0924\u0928": 2809,
  "\u2581\u0936\u0924\u094d\u0930\u0941": 2810,
  "mail": 2811,
  "\u2581\u0927\u0930\u094d\u092e\u0940": 2812,
  "\u2581souls": 2813,
  "\u2581\u0939\u0930\u093e\u092e": 2814,
  "\u2581held": 2815,
  "\u2581\u0905\u0902\u0915": 2816,
  "\u2581\u0917\u0941\u091c\u093c\u0930": 2817,
  "\u2581qualities": 2818,
  "\u2581\u0935\u0948\u0927": 2819,
  "\u258113.": 2820,
  "\u2581accounts": 2821,
  "\u2581\u0926\u092f\u093e\u0935\u093e\u0928": 2822,
  "\u2581\u092a\u094d\u0930\u0915\u093e\u0936\u093f\u0924": 2823,
  "\u2581\u092a\u0943\u0937\u094d\u0920\u092d\u0942\u092e\u093f": 2824,
  "\u2581provision": 2825,
  "\u2581Check": 2826,
  "\u2581\u092a\u0924\u094d\u0925\u0930": 2827,
  "\u2581options": 2828,
  "\u2581various": 2829,
  "\u2581\u0926\u093f\u0932\u091a\u0938\u094d\u092a\u0940": 2830,
  "\u2581rain": 2831,
  "\u2581\u0915\u093e\u0932\u0947": 2832,
  "\u2581blind": 2833,
  "\u2581\u0916\u093c\u0942\u092c": 2834,
  "\u2581seeking": 2835,
  "\u2581Choose": 2836,
  "\u2581\u092a\u094d\u0930\u0915\u093e\u0936": 2837,
  "\u2581\u0928\u093f\u0930\u094d\u0927\u093e\u0930\u093f\u0924": 2838,
  "\u2581examples": 2839,
  "\u2581meaning": 2840,
  "\u2581Print": 2841,
  "\u2581wonderful": 2842,
  "\u2581<": 2843,
  "\u2581States": 2844,
  "\u2581\u0938\u092e\u094d\u092c\u0928\u094d\u0927": 2845,
  "\u2581\u092c\u0941\u0926\u094d\u0927\u093f\u092e\u093e\u0928": 2846,
  "\u2581Don": 2847,
  "\u2581forward": 2848,
  "\u2581\u096f": 2849,
  "\u258127": 2850,
  "\u2581\u0921\u093f\u092b\u093c\u0949\u0932\u094d\u091f": 2851,
  "\u092d\u093e\u0901\u0924\u093f": 2852,
  "\u2581seed": 2853,
  "\u2581\u0915\u094d\u0930\u094b\u0927": 2854,
  "\u2581\u0939\u0941\u0915\u0941\u092e": 2855,
  "\u2581angel": 2856,
  "ation": 2857,
  "\u2581door": 2858,
  "\u2581fulfilled": 2859,
  "\u2581Path": 2860,
  "\u2581Great": 2861,
  "\u2581Re": 2862,
  "\u25819:": 2863,
  "\u2581aware": 2864,
  "\u2581effort": 2865,
  "\u2581First": 2866,
  "\u2581\u0926\u0930\u0905\u0938\u0932": 2867,
  "\u2581Disable": 2868,
  "\u2581\u0926\u092f\u093e\u0932\u0941\u0924\u093e": 2869,
  "\u2581configuration": 2870,
  "\u2581diamonds": 2871,
  "\u2581\u092a\u0941\u0930\u0942\u0937": 2872,
  "\u258132": 2873,
  "\u0917\u093c\u093e\u0932\u093f\u092c": 2874,
  "\u2581instance": 2875,
  "\u2581main": 2876,
  "\u2581taste": 2877,
  "\u2581\u092a\u094d\u0930\u093e\u0923": 2878,
  "\u2581looking": 2879,
  "\u2581pure": 2880,
  "\u2581clubs": 2881,
  "\u2581half": 2882,
  "\u2581\u092f\u093e\u091c\u0915": 2883,
  "\u2581hide": 2884,
  "\u2581connection": 2885,
  "\u2581hast": 2886,
  "\u2581secure": 2887,
  "\u2581\u0938\u092c\u0942\u0924": 2888,
  "\u2581\u0938\u0941\u0930\u0915\u094d\u0937\u093e": 2889,
  "\u258140": 2890,
  "\u2581\u0921\u093e\u0932\u0947": 2891,
  "\u2581\u092a\u094d\u0930\u093e\u091a\u0940\u0928\u094b\u0902": 2892,
  "\u2581daughters": 2893,
  "\u2581direction": 2894,
  "\u2581\u092f\u0942\u0928\u093e\u0928\u0940": 2895,
  "\u2581\u091a\u093f\u0921\u093c\u0940": 2896,
  "\u2581\u0927\u093e\u0930\u094d\u092e\u093f\u0915": 2897,
  "\u2581\u092e\u093e\u092c\u0942\u0926": 2898,
  "\u2581\u092a\u094d\u0930\u0915\u094d\u0930\u093f\u092f\u093e": 2899,
  "\u2581Anjuta": 2900,
  "\u258116.": 2901,
  "\u2581\u0915\u0948\u0938\u0940": 2902,
  "\u2581\u091c\u094b\u0921\u093c\u0928\u0947": 2903,
  "\u2581\u092c\u0940\u092e\u093e\u0930\u0940": 2904,
  "ar": 2905,
  "\u2581THE": 2906,
  "\u2581stop": 2907,
  "\u2581subject": 2908,
  "\u2581\u0921\u0947\u0938\u094d\u0915\u091f\u0949\u092a": 2909,
  "\u25818,": 2910,
  "\u2581\u0938\u0941\u092c\u0939": 2911,
  "\u2581circumstances": 2912,
  "\u2581\u0915\u092e\u0940": 2913,
  "\u2581\u092c\u091a": 2914,
  "\u25816.": 2915,
  "\u2581dwell": 2916,
  "\u2581Witness": 2917,
  "\u2581decision": 2918,
  "\u2581\u091c\u093c\u0930\u0941\u0930": 2919,
  "\u2581\u091c\u093c\u092e\u093e\u0928\u0947": 2920,
  "\u2581guard": 2921,
  "\u2581\u0938\u0947\u091f\u093f\u0902\u0917": 2922,
  "\u0931": 2923,
  "\u2581\u0928\u0947\u0915": 2924,
  "\u258128": 2925,
  "\u2581\u0924\u093e\u0915\u0924": 2926,
  "\u2581\u0932\u0921\u093c\u0915\u0947": 2927,
  "\u258115.": 2928,
  "\u2581\u092a\u094d\u0930\u093e\u092a\u094d\u0924\u0915\u0930\u094d\u0924\u093e": 2929,
  "un": 2930,
  "\u2581Editor": 2931,
  "\u2581Life": 2932,
  "\u258117.": 2933,
  "\u2581occurred": 2934,
  "\u2581\u0906\u0902\u0915\u0921\u093c\u093e": 2935,
  "\u2581\u0915\u0920\u093f\u0928": 2936,
  "\u2581\u0938\u0941\u0928\u0924\u093e": 2937,
  "\u2581\u092a\u094d\u0930\u0938\u0902\u0917": 2938,
  "\u2581spades": 2939,
  "\u2581\u0924\u092f": 2940,
  "\u2581eight": 2941,
  "\u2581faces": 2942,
  "\u2581plain": 2943,
  "\u2581\u092a\u0921\u093c\u0940": 2944,
  "\u2581homes": 2945,
  "\u2581parts": 2946,
  "\u2581continued": 2947,
  "\u2581short": 2948,
  "\u2581served": 2949,
  "\u2581\u0914\u0930\u0924\u094b\u0902": 2950,
  "\u2581\u0924\u0938\u094d\u0935\u0940\u0930": 2951,
  "\u2581prove": 2952,
  "\u2581spread": 2953,
  "\u2581\u0930\u094b\u092e\u093f\u092f\u094b\u0902": 2954,
  "\u2581\u0935\u0902\u0936": 2955,
  "\u0932\u094b\u0917\u094b\u0902": 2956,
  "\u0926\u0942\u0938\u0930\u0947": 2957,
  "\u2581\u092a\u0930\u0935\u093e\u0939": 2958,
  "\u0938\u093e": 2959,
  "\u092f\u0915\u093c\u0940\u0928\u0940": 2960,
  "\u2581permission": 2961,
  "\u2581promises": 2962,
  "\u2581Holy": 2963,
  "\u2581gathered": 2964,
  "\u2581ground": 2965,
  "\u2581\u092c\u0928\u094d\u0926\u0917": 2966,
  "\u2581\u0938\u0940\u0927\u093e": 2967,
  "\u2581\u0938\u094d\u0925\u093f\u0930": 2968,
  "\u2581Pacific": 2969,
  "\u2581entered": 2970,
  "\u2581level": 2971,
  "\u2581\u0921\u0940\u0935\u0940\u0921\u0940": 2972,
  "\u2581\u092e\u0941\u0915\u093c\u093e\u092c\u0932\u0947": 2973,
  "\u2581Keep": 2974,
  "\u2581maintain": 2975,
  "\u2581\"{0}\"": 2976,
  "\u2581Jewish": 2977,
  "\u2581Password": 2978,
  "\u2581percent": 2979,
  "\u2581refuge": 2980,
  "\u2581severe": 2981,
  "\u2581regard": 2982,
  "\u2581several": 2983,
  "\u2581running": 2984,
  "\u2581Files": 2985,
  "\u2581moves": 2986,
  "\u2581record": 2987,
  "\u2581\u0967\u0969": 2988,
  "All": 2989,
  "\u2581\u0932\u0917\u093e\u092f\u093e": 2990,
  "no": 2991,
  "\u2581kings": 2992,
  "\u2581lest": 2993,
  "\u2581class": 2994,
  "\u2581\u092c\u093e\u0917\u093c": 2995,
  "\u2581\u0930\u093e\u0938\u094d\u0924\u093e": 2996,
  "\u2581\u092c\u0939\u0941\u0924\u0947\u0930": 2997,
  "\u2581\u092e\u094b\u092e\u093f\u0928": 2998,
  "\u2581\u0938\u0947\u0928\u093e": 2999,
  "\u2581Source": 3000,
  "\u2581confidence": 3001,
  "\u2581spoken": 3002,
  "\u2581\u0906\u092f\u0940": 3003,
  "\u2581built": 3004,
  "\u2581determined": 3005,
  "\u2581\u091c\u093c\u093f\u0928\u094d\u0926\u0917\u0940": 3006,
  "\u2581\u0930\u0939\u0928\u0947\u0935\u093e\u0932\u0947": 3007,
  "K": 3008,
  "\u2581commit": 3009,
  "\u2581drive": 3010,
  "\u2581burning": 3011,
  "\u2581darkness": 3012,
  "\u2581visit": 3013,
  "\u2581getting": 3014,
  "\u2581issue": 3015,
  "\u2581previous": 3016,
  "\u2581actually": 3017,
  "\u2581met": 3018,
  "\u2581\u0915\u0930\u094b\u0917\u0947": 3019,
  "\u2581favor": 3020,
  "\u2581\u0932\u0940\u091c\u093f\u090f": 3021,
  "il": 3022,
  "\u2581reached": 3023,
  "\u2581prophets": 3024,
  "\u2581\u0906\u0916\u093f\u0930": 3025,
  "\u2581unless": 3026,
  "And": 3027,
  "\u2581signature": 3028,
  "\u2581Next": 3029,
  "\u2581audio": 3030,
  "\u2581remote": 3031,
  "\u2581hidden": 3032,
  "\u2581lot": 3033,
  "\u2581Behold": 3034,
  "\u2581\u092a\u093e\u0938\u0935\u0930\u094d\u0921": 3035,
  "\u2581Information": 3036,
  "\u2581\u091c\u093f\u0928\u0915\u0940": 3037,
  "z": 3038,
  "\u2581\u0905\u0927\u093f\u0915\u093e\u0930\u0940": 3039,
  "\u2581\u0967\u096a": 3040,
  "\u2581physical": 3041,
  "\u2581ransom": 3042,
  "\u2581\u092c\u0915\u094d\u0938": 3043,
  "\u2581\u092d\u0940\u0924\u0930": 3044,
  "\u2581\u092a\u0922\u093c\u093e": 3045,
  "\u2581afraid": 3046,
  "\u2581\u0915\u094b\u0921": 3047,
  "\u2581\u0927\u0940\u0930\u0947": 3048,
  "\u2581Screen": 3049,
  "\u2581bar": 3050,
  "\u2581fast": 3051,
  "\u2581Aaron": 3052,
  "\u2581salvation": 3053,
  "\u2581\u091c\u093f\u0928\u0915\u094b": 3054,
  "\u2581\u0932\u0947\u0902\u0917\u0947": 3055,
  "\u2581languages": 3056,
  "\u2581secret": 3057,
  "\u0935\u0947": 3058,
  "\u2581assigned": 3059,
  "\u2581rich": 3060,
  "\u0917\u0940": 3061,
  "\u2581Right": 3062,
  "\u2581associate": 3063,
  "\u2581pain": 3064,
  "\u2581\u0928\u0924\u0940\u091c\u093e": 3065,
  "\u2581\u0915\u091a\u0930\u093e": 3066,
  "\u2581\u092d\u0930\u0947\u0902": 3067,
  "\u25812,": 3068,
  "\u2581Come": 3069,
  "\u2581OF": 3070,
  "\u2581rivers": 3071,
  "\u0926\u0948\u0935": 3072,
  "\u2581Take": 3073,
  "\u2581\u092a\u0939\u093f\u0932\u0947": 3074,
  "\u2581\u0925\u094b\u0921\u093c\u0947": 3075,
  "\u2581\u092e\u0902\u0926\u093f\u0930": 3076,
  "\u2581g": 3077,
  "\u2581black": 3078,
  "\u2581\u0938\u092e\u093e\u0939": 3079,
  "\u2581birth": 3080,
  "\u2581content": 3081,
  "\u2581deliver": 3082,
  "\u2581\u0935\u093f\u0930\u0941\u0926\u094d\u0927": 3083,
  "\u092e\u0947\u0930\u0947": 3084,
  "\u0932\u093e": 3085,
  "\u2581\u0935\u093f\u0932\u094b\u092a\u093f\u0924": 3086,
  "\u2581countries": 3087,
  "\u2581forget": 3088,
  "\u2581thoughts": 3089,
  "\u2581\u091c\u093e\u090f\u0902\u0917\u0947": 3090,
  "\u2581\u0938\u094b\u091a\u093e": 3091,
  "\u2581Ask": 3092,
  "\u2581\u0915\u0932": 3093,
  "\u2581\u0917\u0941\u0928\u093e": 3094,
  "\u2581Watch": 3095,
  "\u2581protect": 3096,
  "\u2581\u0930\u0916\u093f\u090f": 3097,
  "\u2581former": 3098,
  "\u2581\u0906\u0928\u093e": 3099,
  "\u2581\u0907\u0928\u094d\u0915\u093e": 3100,
  "\u2581rejoice": 3101,
  "\u2581\u091b\u0941\u092a\u093e\u090f\u0901": 3102,
  "\u2581\u0932\u0949\u0917": 3103,
  "\u2581entire": 3104,
  "\u2581\u0916\u0942\u0928": 3105,
  "\u2581\u092e\u093f\u0932\u0928\u0947": 3106,
  "\u2581congregations": 3107,
  "\u2581offered": 3108,
  "\u2581whosoever": 3109,
  "\u0915\u0941\u092b\u093c\u094d\u0930": 3110,
  "\u2581color": 3111,
  "\u2581\u0936\u0930\u0940\u0915": 3112,
  "\u2581\u0926\u093f\u0916\u093e\u092f\u0940": 3113,
  "\u2581SAW": 3114,
  "\u2581published": 3115,
  "\u2581\u0926\u0942\u0902\u0917\u093e": 3116,
  "\u2581\u0938\u093e\u092e\u0930\u094d\u0925\u094d\u092f": 3117,
  "\u2581Jeremiah": 3118,
  "\u2581\u091c\u093f\u0924\u0928\u093e": 3119,
  "\u2581\u092e\u0930\u093f\u092f\u092e": 3120,
  "\u2581Unto": 3121,
  "\u2581removed": 3122,
  "\u2581\u092e\u0928\u092a\u0938\u0902\u0926": 3123,
  "\u2581\u0932\u094b\u0917\u094b": 3124,
  "\u2581goes": 3125,
  "\u2581\u092c\u0928\u093e\u0924\u0947": 3126,
  "\u2581\u092a\u094d\u0930\u0936\u093e\u0902\u0924": 3127,
  "\u2581room": 3128,
  "\u2581\u0932\u0921\u093c\u093e\u0908": 3129,
  "\u0926": 3130,
  "\u2581town": 3131,
  "\u2581\u0905\u0927\u0940\u0928": 3132,
  "\u2581helps": 3133,
  "\u2581\u0938\u092a\u094d\u0924\u093e\u0939": 3134,
  "\u2581\u0938\u094b\u0928\u0947": 3135,
  "\u2581\u0906\u0938": 3136,
  "\u2581User": 3137,
  "\u2581results": 3138,
  "\u2581\u0915\u0939\u0940": 3139,
  "\u0916": 3140,
  "\u2581affect": 3141,
  "\u2581Scriptural": 3142,
  "\u2581integrity": 3143,
  "\u2581preach": 3144,
  "\u2581\u0908\u092e\u093e\u0928\u0926\u093e\u0930": 3145,
  "\u2581\u0917\u092f\u0947": 3146,
  "\u2581\u092e\u093f\u0938\u094d\u0930": 3147,
  "\u258113:": 3148,
  "\u2581lay": 3149,
  "\u2581million": 3150,
  "\u2581\u091a\u0930\u094d\u091a": 3151,
  "\u0935\u0930\u0940\u092f": 3152,
  "\u2581'{0}'": 3153,
  "\u2581alive": 3154,
  "\u2581\u091a\u0940\u091c\u093c\u0947\u0902": 3155,
  "\u2581\u0928\u093f\u092e\u094d\u0928": 3156,
  "\u2581\u0932\u0942\u0924": 3157,
  "\u2581\u0938\u0941\u0928\u0915\u0930": 3158,
  "\u2581\u0939\u0935\u093e": 3159,
  "\u2581Pictures": 3160,
  "\u2581break": 3161,
  "\u2581hours": 3162,
  "\u2581trying": 3163,
  "\u2581\u0906\u0917\u094d\u0930\u0939": 3164,
  "\u2581below": 3165,
  "\u2581Genesis": 3166,
  "\u2581\u092a\u094d\u0930\u092f\u0941\u0915\u094d\u0924": 3167,
  "\u2581\u091c\u093f\u0928\u0938\u0947": 3168,
  "\u2581\u0930\u093e\u0938\u094d\u0924\u0947": 3169,
  "\u2581\u0935\u093f\u0935\u093e\u0939": 3170,
  "\u2581Clear": 3171,
  "\u2581expression": 3172,
  "\u2581\u091c\u093f\u0928\u0915\u093e": 3173,
  "\u2581\u0921\u093e\u0932\u0947\u0902": 3174,
  "\u2581security": 3175,
  "\u2581\u092a\u094d\u0930\u094b\u091c\u0947\u0915\u094d\u091f": 3176,
  "\u2581\u092a\u0938\u0928\u094d\u0926": 3177,
  "\u2581efforts": 3178,
  "\u2581\u0918\u0902\u091f\u0947": 3179,
  "\u2581\u0938\u093e\u092e\u0917\u094d\u0930\u0940": 3180,
  "\u0905\u091c\u093c\u093e\u092c": 3181,
  "\u2581session": 3182,
  "\u2581till": 3183,
  "\u2581Settings": 3184,
  "\u2581bread": 3185,
  "\u2581\u0915\u0920\u094b\u0930": 3186,
  "\u2581\u0915\u093e\u0932": 3187,
  "\u2581advice": 3188,
  "\u2581\"{0}": 3189,
  "\u2581\u091c\u0940\u0928\u0947": 3190,
  "\u2581\u0938\u093e\u092e\u093e\u0928": 3191,
  "\u092a\u091f\u094d\u091f\u0940": 3192,
  "\u2581saith": 3193,
  "\u2581ability": 3194,
  "\u2581Key": 3195,
  "\u2581houses": 3196,
  "\u2581parent": 3197,
  "\u258129": 3198,
  "\u2581fell": 3199,
  "\u2581proper": 3200,
  "\u2581\u0926\u093f\u0916\u093e\u0928\u093e": 3201,
  "\u2581contents": 3202,
  "\u2581\u0914\u0932\u093e\u0926": 3203,
  "\u2581\u092a\u094d\u0930\u0935\u093f\u0937\u094d\u091f": 3204,
  "\u2581straight": 3205,
  "\u2581cry": 3206,
  "\u2581standing": 3207,
  "\u2581reject": 3208,
  "\u2581\u091c\u093e\u0926\u0942": 3209,
  "\u2581\u092b\u093f\u0930\u0914\u0928": 3210,
  "\u2581\u0939\u093e\u0930\u0942\u0928": 3211,
  "\u093f\u0932": 3212,
  "\u2581\u0926\u0947\u0930": 3213,
  "\u258150": 3214,
  "\u2581card": 3215,
  "\u2581explained": 3216,
  "\u2581\u0906\u0927\u093e\u0930\u093f\u0924": 3217,
  "\u2581happen": 3218,
  "\u2581\u0938\u0935\u093e\u0932\u094b\u0902": 3219,
  "\u2581\u092c\u093e\u0915\u0940": 3220,
  "\u2581\u092b\u094b\u0932\u094d\u0921\u0930": 3221,
  "\u2581\u092c\u094b\u0932\u0947": 3222,
  "?\u201d": 3223,
  "Our": 3224,
  "\u2581force": 3225,
  "\u2581willing": 3226,
  "\u2581\u092d\u0930\u093e": 3227,
  "\u2581appropriate": 3228,
  "\u2581pioneer": 3229,
  "\u2581\u0939\u0941\u0915\u0942\u092e\u0924": 3230,
  "\u2581Scripture": 3231,
  "\u2581throughout": 3232,
  "\u2581\u0917\u0939\u0930\u093e": 3233,
  "\u2581\u092a\u0936\u094d": 3234,
  "\u2581\u092e\u093e\u092b": 3235,
  "\u2581believing": 3236,
  "\u2581store": 3237,
  "To": 3238,
  "\u2581\u0922\u0947\u0930": 3239,
  "\u2581\u0928\u093f\u092f\u0902\u0924\u094d\u0930\u0923": 3240,
  "\u2581Size": 3241,
  "\u2581\u091a\u094c\u0921\u093c\u093e\u0908": 3242,
  "\u2581\u092e\u093e\u0928\u0935": 3243,
  "\u2581placed": 3244,
  "\u2581\u092e\u093f": 3245,
  "\u2581\u0936\u094d\u0930\u0947\u092f": 3246,
  "\u094d\u0939\u0947\u0902": 3247,
  "\u25815,": 3248,
  "\u2581prison": 3249,
  "\u2581\u092c\u0922\u093c\u093e\u0935\u093e": 3250,
  "\u2581\u092e\u0941\u0938\u0940\u092c\u0924": 3251,
  "\u2581activity": 3252,
  "\u2581\u0926\u0930\u092e\u093f\u092f\u093e\u0928": 3253,
  "doers": 3254,
  "\u093f\u092f\u093e": 3255,
  "\u2581manner": 3256,
  "\u2581proved": 3257,
  "\u2581heed": 3258,
  "\u2581glad": 3259,
  "\u2581opportunity": 3260,
  "\u2581\u092c\u0947\u091f\u0940": 3261,
  "\u2581\u0924\u094b\u0921\u093c": 3262,
  "\u2581\u092d\u0930\u0947": 3263,
  "\u2581appear": 3264,
  "\u2581flow": 3265,
  "\u2581\u092e\u0930\u0947": 3266,
  "\u2581\u0905\u0927\u094d\u092f\u093e\u092f": 3267,
  "\u2581\u0916\u094b\u091c\u0947\u0902": 3268,
  "\u2581modern": 3269,
  "\u2581theme": 3270,
  "\u2581tidings": 3271,
  "\u2581\u092e\u0927\u094d\u092f": 3272,
  "\u2581Hence": 3273,
  "\u2581\u0932\u093e\u0924\u0947": 3274,
  "\u2581office": 3275,
  "\u2581\u092e\u093f\u0932\u0947\u0917\u093e": 3276,
  "\u2581books": 3277,
  "\u2581items": 3278,
  "\u2581\u091c\u093e\u0924\u093f\u092f\u094b\u0902": 3279,
  "\u2581\u0932\u093e\u092f\u093e": 3280,
  "\u2581Help": 3281,
  "\u2581eye": 3282,
  "\u2581job": 3283,
  "\u2581\u092a\u093f\u091b\u0932\u093e": 3284,
  "\u2581\u0967\u096f": 3285,
  "\u2581@": 3286,
  "\u2581\u092a\u094d\u0930\u0927\u093e\u0928": 3287,
  "\u2581recorded": 3288,
  "\u2581respond": 3289,
  "\u2581\u092e\u0941\u0915\u093c\u0930\u094d\u0930\u0930": 3290,
  "\u0924\u094c\u0930": 3291,
  "\u25814,": 3292,
  "\u2581Instead": 3293,
  "\u2581\u0907\u0902\u0924\u091c\u093c\u093e\u092e": 3294,
  "\u2581\u0915\u093c\u0926\u092e": 3295,
  "\u2581\u0909\u0920\u093e\u092f\u093e": 3296,
  "\u2581midst": 3297,
  "\u2581patience": 3298,
  "\u2581!": 3299,
  "\u2581Before": 3300,
  "\u2581\u092e\u093f\u0924\u094d\u0930": 3301,
  "\u2581loyal": 3302,
  "\u2581\u092a\u0938\u0902\u0926\u0940\u0926\u093e": 3303,
  "\u2581privilege": 3304,
  "\u2581\u092c\u0926\u0932\u093e\u0935": 3305,
  "\u2581\u091b\u094b\u0921\u093c\u0947\u0902": 3306,
  "\u2581\u092c\u093e\u092c\u0941\u0932": 3307,
  "\u2581\u092f\u0942\u0901": 3308,
  "Muhammad": 3309,
  "\u2581returns": 3310,
  "\u2581stated": 3311,
  "\u2581Game": 3312,
  "\u2581\u0917\u093c\u094c\u0930": 3313,
  "\u2581About": 3314,
  "\u2581branch": 3315,
  "\u0928\u0947\u0935\u093e\u0932\u093e": 3316,
  "\u2581contain": 3317,
  "\u2581\u0930\u094c\u0936\u0928": 3318,
  "\u2581\u0932\u0917\u093e\u0924\u093e\u0930": 3319,
  "\u2581\u0916\u093e\u0938\u0915\u0930": 3320,
  "\u2581\u0938\u0941\u0927\u093e\u0930": 3321,
  "\u2581acts": 3322,
  "\u25819,": 3323,
  "\u2581Moreover": 3324,
  "\u2581active": 3325,
  "\u2581\u0926\u0936\u093e": 3326,
  "\u2581\u0930\u093f\u0915\u094d\u0924": 3327,
  "\u0935\u093e\u0932\u094b\u0902": 3328,
  "\u2581>": 3329,
  "\u2581\u0938\u0943\u0937\u094d\u091f\u093f": 3330,
  "\u2581device": 3331,
  "\u2581inside": 3332,
  "\u2581\u0905\u0938\u094d\u0925\u093e\u092f\u0940": 3333,
  "\u2581\u0914\u091c\u093c\u093e\u0930": 3334,
  "\u2581\u0915\u0926\u093e": 3335,
  "\u2581activities": 3336,
  "\u2581freedom": 3337,
  "\u2581selection": 3338,
  "\u2581\u092a\u0942\u091c\u094d\u092f": 3339,
  "\u2581\u0938\u092e\u093e\u091a\u093e\u0930": 3340,
  "\u2581lands": 3341,
  "\u2581table": 3342,
  "\u2581earlier": 3343,
  "\u2581evening": 3344,
  "\u2581greatest": 3345,
  "\u2581top": 3346,
  "\u2581Get": 3347,
  "\u2581prayed": 3348,
  "\u2581\u0915\u092e\u091c\u093c\u094b\u0930": 3349,
  "In": 3350,
  "\u2581thanks": 3351,
  "\u2581\u0905\u0927\u093f\u0915\u0924\u0930": 3352,
  "\u2581\u0930": 3353,
  "\u2581queen": 3354,
  "\u0917": 3355,
  "\u2581church": 3356,
  "\u2581\u0905\u0928\u0941\u0938\u0930\u0923": 3357,
  "\u2581link": 3358,
  "\u2581Still": 3359,
  "\u2581access": 3360,
  "\u2581provides": 3361,
  "\u2581violence": 3362,
  "\u25816,": 3363,
  "\u2581\u0915\u0941\u092b\u094d\u092b\u093c\u093e\u0930": 3364,
  "\u2581\u0921\u0930\u094b": 3365,
  "\u092a\u0928": 3366,
  "\u2581Forgiving": 3367,
  "\u090f\u0901": 3368,
  "\u2581messenger": 3369,
  "\u2581building": 3370,
  "\u2581thousands": 3371,
  "\u2581vital": 3372,
  "\u2581\u0917\u0902\u092d\u0940\u0930": 3373,
  "\u2581\u0938\u093f\u0916\u093e\u092f\u093e": 3374,
  "\u2581\u092d\u0932\u0947": 3375,
  "\u2581\u0915\u093e\u0930\u094d\u092f\u0915\u094d\u0930\u092e": 3376,
  "\u2581\u0915\u094d\u0937\u092e\u093e\u0936\u0940\u0932": 3377,
  "\u2581Roman": 3378,
  "\u2581grateful": 3379,
  "\u2581condition": 3380,
  "\u2581\u0907\u0938\u094d\u0930\u093e\u090f\u0932\u0940": 3381,
  "\u2581W": 3382,
  "\u2581m": 3383,
  "\u2581responsibility": 3384,
  "\u2581style": 3385,
  "\u2581\u0909\u091a\u094d\u091a": 3386,
  "\u2581\u0930\u0915\u094d\u0937\u093e": 3387,
  "\u2581\u0930\u0939\u092e\u0924": 3388,
  "\u2581target": 3389,
  "\u2581\u0926\u093f\u0936\u093e": 3390,
  "\u2581\u092a\u0924\u094d\u0930\u093f\u0915\u093e": 3391,
  "\u2581\u0924\u092e\u093e\u092e": 3392,
  "\u2581\u0926\u0947\u0916\u0928\u093e": 3393,
  "\u2581sword": 3394,
  "\u2581\u0926\u094c\u0921\u093c": 3395,
  "\u2581role": 3396,
  "\u2581sick": 3397,
  "\u2581Good": 3398,
  "\u2581Which": 3399,
  "\u2581humble": 3400,
  "\u2581almost": 3401,
  "\u2581laws": 3402,
  "\u2581\u0909\u0924\u094d\u092a\u0928\u094d\u0928": 3403,
  "\u2581\u0938\u0941\u0916": 3404,
  "\u2581animals": 3405,
  "\u2581silver": 3406,
  "\u2581\u0907\u092c\u094d\u0930\u093e\u0928\u093f\u092f\u094b\u0902": 3407,
  "\u2581\u092a\u0939\u0941\u0901\u091a\u0947": 3408,
  "\u2581\u092e\u094c\u0915\u093e": 3409,
  "\u2581chapter": 3410,
  "\u2581\u090f\u0915\u094d\u0938": 3411,
  "\u2581gardens": 3412,
  "\u2581sending": 3413,
  "\u2581\u092c\u091a\u094d\u091a\u093e": 3414,
  "\u2581\u0930\u0939\u0947\u0917\u0940": 3415,
  "\u2581\u0939\u094b\u0902\u0917\u0940": 3416,
  "\u0915\u093c\u093f\u092f\u093e\u092e\u0924": 3417,
  "\u2581\u0938\u093e\u0935\u0927\u093e\u0928": 3418,
  "\u2581Date": 3419,
  "\u2581displayed": 3420,
  "\u2581\u091c\u093e\u0902\u091a\u0947\u0902": 3421,
  "\u2581\u0938\u091c\u0926\u093e": 3422,
  "\u2581track": 3423,
  "\u2581\u092c\u0928\u093e\u0928\u093e": 3424,
  "\u2581quality": 3425,
  "\u2581\u092d\u093e\u0937\u0923": 3426,
  "\u2581\u092f\u094b\u0902": 3427,
  "\u2581\u0938\u093f\u0935\u093e\u092f": 3428,
  "\u2581loss": 3429,
  "\u2581request": 3430,
  "\u2581\u091a\u093f\u0902\u0924\u093e": 3431,
  "\u2581dust": 3432,
  "\u2581raise": 3433,
  "\u2581\u092a\u0947\u091f": 3434,
  "\u2581height": 3435,
  "\u2581imitate": 3436,
  "\u2581\u0936\u0940\u0930\u094d\u0937": 3437,
  "\u2581\u0967\u096c": 3438,
  "\u2581reflect": 3439,
  "\u2581wine": 3440,
  "\u2581battle": 3441,
  "\u2581standards": 3442,
  "\u2581\u0915\u093c\u0930\u0940\u092c": 3443,
  "\u2581\u0915\u093e\u0930": 3444,
  "\u2581\u0928\u093f\u0930\u094d\u092e\u093f\u0924": 3445,
  "\u2581government": 3446,
  "ive": 3447,
  "\u0905\u0928\u0915\u093c\u0930\u0940\u092c": 3448,
  "\u2581Box": 3449,
  "\u2581End": 3450,
  "\u2581\u091c\u0939\u093e\u0902": 3451,
  "\u2581Plugin": 3452,
  "\u2581\u0917\u0941\u092e\u0930\u093e\u0939": 3453,
  "\u2581\u0932\u0917\u093e\u090f": 3454,
  "\u2581Society": 3455,
  "\u2581\u0928\u093f\u0930\u094d\u092e\u093e\u0923": 3456,
  "\u2581Command": 3457,
  "\u2581Web": 3458,
  "\u2581explains": 3459,
  "\u2581mine": 3460,
  "\u2581\u0915\u092c\u0942\u0932": 3461,
  "\u2581earthly": 3462,
  "\u2581\u091b\u094b\u0921\u093c\u093e": 3463,
  "\u092f\u094b\u0902": 3464,
  "\u2581endure": 3465,
  "\u2581\u092a\u0947\u0921\u093c": 3466,
  "from": 3467,
  "\u2581function": 3468,
  "\u2581code": 3469,
  "\u2581\u091c\u093c\u093f\u0928\u094d\u0926\u093e": 3470,
  "\u2581\u092d\u0947\u0921\u093c": 3471,
  "\u2581watch": 3472,
  "\u2581\u0938\u094d\u092e\u0930\u0923": 3473,
  "\u2581\u091c\u094b\u0936": 3474,
  "\u2581necessary": 3475,
  "\u2581\u0905\u0924\u094d\u092f\u093e\u091a\u093e\u0930": 3476,
  "\u2581\u0917\u0948\u0930": 3477,
  "\u2581\u092a\u0948\u0938\u0947": 3478,
  "\u2581beginning": 3479,
  "+": 3480,
  "\u2581precious": 3481,
  "\u2581knowing": 3482,
  "\u2581safe": 3483,
  "\u2581sexual": 3484,
  "\u2581warn": 3485,
  "\u2581\u092a\u0922\u093c\u0924\u0947": 3486,
  "\u2581High": 3487,
  "\u2581crowd": 3488,
  "\u2581\u091b\u093e\u092a\u0947\u0902": 3489,
  "\u2581\u0930\u094b\u091f\u0940": 3490,
  "\u2581\u0938\u093e\u0902\u0938\u093e\u0930\u093f\u0915": 3491,
  "\u2581couple": 3492,
  "\u2581moon": 3493,
  "\u2581\u0938\u0902\u0935\u093e\u0926": 3494,
  "\u2581Bethel": 3495,
  "\u2581produce": 3496,
  "\u2581\u0917\u0924\u093f": 3497,
  "\u2581groups": 3498,
  "\u2581\u0968\u0966": 3499,
  "\u2581100": 3500,
  "\u2581\u0909\u0924\u094d\u092a\u0924\u094d\u0924\u093f": 3501,
  "\u2581\u092a\u0941\u0915\u093e\u0930": 3502,
  "\u2581\u092a\u0941\u0928\u0903": 3503,
  "\u2581\u0939\u0932": 3504,
  "\u2581\u0926\u0930\u094d\u0936\u0928": 3505,
  "\u2581\u0928\u0947\u0915\u0940": 3506,
  "\u2581\u0916\u093f\u0938\u0915\u093e\u090f\u0901": 3507,
  "\u2581\u0938\u092e\u0947\u0924": 3508,
  "\u2581disease": 3509,
  "\u2581\u0926\u0930": 3510,
  "\u2581beautiful": 3511,
  "\u2581\u0909\u0926\u094d\u0926\u0947\u0936\u094d": 3512,
  "\u2581\u092c\u0916\u094d\u0936\u0928": 3513,
  "\u2581nine": 3514,
  "\u2581\u0935\u091c\u093c\u0939": 3515,
  "man": 3516,
  "\u2581decided": 3517,
  "\u2581vision": 3518,
  "\u2581\u0924\u0924\u094d\u0935\u0926\u0930\u094d\u0936\u0940": 3519,
  ">": 3520,
  "with": 3521,
  "\u2581Credit": 3522,
  "\u2581forbidden": 3523,
  "\u2581filter": 3524,
  "\u2581tongue": 3525,
  "\u2581\u0932\u0917\u0924\u0947": 3526,
  "\u2581\u0938\u0930\u0915\u093e\u0930": 3527,
  "\u2581\u0938\u094d\u0935\u0930\u094d\u0917\u0926\u0942\u0924": 3528,
  "\u2581progress": 3529,
  "\u2581warned": 3530,
  "\u2581\u0915\u093e\u091f": 3531,
  "\u2581\u0926\u0943\u0922\u093c": 3532,
  "\u2581\u091f\u0949\u0917\u0932": 3533,
  "\u2581setting": 3534,
  "\u2581\u0915\u0926\u0930": 3535,
  "\u2581\u0932\u0947\u092c\u0932": 3536,
  "\u2581\u0936\u093f\u0915\u093e\u0930": 3537,
  "\u2581\u0915\u093c\u0941\u0930\u093e\u0928": 3538,
  "\u2581\u0936\u0948\u0932\u0940": 3539,
  "\u2581\u0938\u093f\u0926\u094d\u0927": 3540,
  "\u2581Samuel": 3541,
  "\u2581\u092a\u0940\u0928\u0947": 3542,
  "\u2581\u092a\u0941\u0928\u0930\u0941\u0924\u094d\u0925\u093e\u0928": 3543,
  "\u2581seeing": 3544,
  "\u2581successfully": 3545,
  "\u2581\u092e\u093f\u091f\u093e\u0928\u093e": 3546,
  "\u2581\u0915\u093e\u0930\u094d\u0921": 3547,
  "\u2581\u0967\u096d": 3548,
  "\u2581\u0917": 3549,
  "\u2581\u092a\u094d\u0930\u0947\u0937\u0915": 3550,
  "\u2581Task": 3551,
  "\u2581disbelieved": 3552,
  "\u2581Messages": 3553,
  "\u2581\u0905\u0935\u0938\u0930": 3554,
  "\u2581\u092a\u0921\u093c\u0947\u0917\u093e": 3555,
  "\u2581\u092a\u0940\u0920": 3556,
  "\u2581More": 3557,
  "\u2581host": 3558,
  "\u2581\u0905\u0915\u094d\u0937\u0930": 3559,
  "\u2581\u092f\u0941\u0915\u094d\u0924\u093f": 3560,
  "\u0942": 3561,
  "\u2581\u0938\u0947\u0935\u0915\u093e\u0908": 3562,
  "\u2581Another": 3563,
  "\u2581recompense": 3564,
  "\u2581\u092e\u093e\u092e\u0932\u094b\u0902": 3565,
  "\u2581Look": 3566,
  "\u2581appreciation": 3567,
  "\u2581carried": 3568,
  "\u2581Here": 3569,
  "\u2581authentication": 3570,
  "\u2581creatures": 3571,
  "\u2581Current": 3572,
  "\u2581hearing": 3573,
  "\u2581\u0906\u0916\u093c\u093f\u0930": 3574,
  "\u2581\u0924\u094c\u092d\u0940": 3575,
  "\u2581devotion": 3576,
  "\u2581grace": 3577,
  "\u2581\u0936\u0941\u092d": 3578,
  "\u2581worldwide": 3579,
  "\u2581include": 3580,
  "\u2581\u0918\u0930\u093e\u0928\u0947": 3581,
  "\u2581\u091b\u0941\u091f\u0915\u093e\u0930\u093e": 3582,
  "\u2581army": 3583,
  "\u2581boy": 3584,
  "\u2581millions": 3585,
  "\u2581truthful": 3586,
  "\u2581\u090f\u0939\u0938\u093e\u0938": 3587,
  "\u0935\u093e": 3588,
  "\u2581Had": 3589,
  "\u2581\u0928\u093f\u092f\u092e\u093f\u0924": 3590,
  "\u091a\u093f\u0924": 3591,
  "\u2581laid": 3592,
  "\u2581natural": 3593,
  "\u2581\u0909\u0920\u093e\u090f": 3594,
  "\u258118.": 3595,
  "Jehovah": 3596,
  "\u2581Change": 3597,
  "\u2581non": 3598,
  "\u2581\u0909\u0920\u093e\u0928\u0947": 3599,
  "\u2581\u0924\u0932\u0935\u093e\u0930": 3600,
  "\u2581realize": 3601,
  "\u2581\u0906\u0901\u0916\u094b\u0902": 3602,
  "\u2581\u0915\u094d\u0932\u093f\u092a\u092c\u094b\u0930\u094d\u0921": 3603,
  "When": 3604,
  "\u0906": 3605,
  "\u2581influence": 3606,
  "\u2581wrath": 3607,
  "\u0928\u0947\u0935\u093e\u0932\u094b\u0902": 3608,
  "\u2581correct": 3609,
  "\u2581original": 3610,
  "\u2581\u0928\u0939\u0930\u0947\u0902": 3611,
  "\u2581\u0935\u0938\u094d\u0924\u0941\u0913\u0902": 3612,
  "\u2581box": 3613,
  "\u2581replied": 3614,
  "\u2581reply": 3615,
  "\u2581\u0917\u0941\u092a\u094d\u0924": 3616,
  "\u2581\u092d\u0942\u092e\u093f\u0915\u093e": 3617,
  "\u2581causes": 3618,
  "\u2581ears": 3619,
  "\u2581installed": 3620,
  "\u2581\u092e\u094c\u0938\u092e": 3621,
  "\u2581Black": 3622,
  "\u2581inhabitants": 3623,
  "\u2581\u0915\u093c\u093e\u092f\u092e": 3624,
  "\u0941": 3625,
  "\u2581\u0938\u093e\u0930\u093e\u0902\u0936": 3626,
  "\u2581Colour": 3627,
  "\u2581\u0928\u094c\u0915\u0930\u0940": 3628,
  "\u2581granted": 3629,
  "\u2581\u0908\u092e\u093e\u0928\u0935\u093e\u0932\u094b\u0902": 3630,
  "\u2581\u092a\u094d\u0930\u092d\u0941\u0924\u094d\u0935\u0936\u093e\u0932\u0940": 3631,
  "\u2581\u092c\u093e\u0930\u0917\u093e\u0939": 3632,
  "\u2581Knowing": 3633,
  "\u2581N": 3634,
  "\u2581\u0936\u094d\u0930\u0947\u0923\u0940": 3635,
  "\u258118:": 3636,
  "\u2581c": 3637,
  "\u2581pleasure": 3638,
  "\u2581\u0906\u0916\u093f\u0930\u0940": 3639,
  "\u2581\u0915\u0930\u094d\u0924\u093e": 3640,
  "\u2581Though": 3641,
  "\u2581\u0926\u0947\u0916\u092d\u093e\u0932": 3642,
  "\u2581\u092a\u094d\u0930\u0939\u0930\u0940\u0926\u0941\u0930\u094d\u0917": 3643,
  "\u0938\u094d\u0924": 3644,
  "\u2581concern": 3645,
  "\u2581reports": 3646,
  "\u2581sacred": 3647,
  "\u2581standard": 3648,
  "\u2581\u0935\u0939\u0940\u0902": 3649,
  "\u2581\u0967\u096e": 3650,
  "\u2581manager": 3651,
  "\u2581reveal": 3652,
  "\u2581\u0938\u092d\u093e": 3653,
  "\u2581V": 3654,
  "\u2581decisions": 3655,
  "\u2581fulfillment": 3656,
  "\u2581\u091c\u0930\u0942\u0930\u0940": 3657,
  "\u2581\u0938\u094d\u0925\u093e\u092f\u0940": 3658,
  "\u0930\u0940": 3659,
  "\u2581requires": 3660,
  "\u2581spent": 3661,
  "\u2581\u0906\u0909\u091f\u092a\u0941\u091f": 3662,
  "\u092b": 3663,
  "\u093e\u0901": 3664,
  "\u2581baptism": 3665,
  "ment": 3666,
  "\u2581\u0938\u094d\u0935\u093e\u092e\u0940": 3667,
  "\u2581custom": 3668,
  "\u2581\u0915\u093e\u0930\u094d\u092f\u094b\u0902": 3669,
  "\u2581%2": 3670,
  "\u2581Data": 3671,
  "\u2581observe": 3672,
  "\u2581unknown": 3673,
  "\u2581\u092a\u0942\u091b": 3674,
  "\u2581\u0938\u0915\u0947\u0902\u0917\u0947": 3675,
  "\u2581benefits": 3676,
  "\u2581leaders": 3677,
  "\u2581showing": 3678,
  "\u2581wind": 3679,
  "\u2581won": 3680,
  "\u2581\u0938\u094d\u0924\u0941\u0924\u093f": 3681,
  "\u2581expect": 3682,
  "\u2581\u092f\u093f\u0930\u094d\u092e\u092f\u093e\u0939": 3683,
  "\u2581J": 3684,
  "\u2581perform": 3685,
  "\u2581\u0907\u0932\u094d\u092e": 3686,
  "\u2581\u092a\u0941\u0930\u0941\u0937\u094b\u0902": 3687,
  "\u2581doesn": 3688,
  "\u2581\u0938\u092e\u091d\u0924\u093e": 3689,
  "\u2581daily": 3690,
  "\u2581\u0938\u0940\u0916\u093e": 3691,
  "\u2581begin": 3692,
  "\u2581burn": 3693,
  "\u2581\u0916\u093e\u0913": 3694,
  "\u093e\u0924": 3695,
  "\u2581email": 3696,
  "\u2581pleased": 3697,
  "\u2581SSL": 3698,
  "\u2581\u092e\u093f\u0932\u0947\u0917\u0940": 3699,
  "\u2581Window": 3700,
  "\u2581paradise": 3701,
  "\u2581\u0936\u0941\u0915\u094d\u0930": 3702,
  "\u2581Spirit": 3703,
  "\u2581addition": 3704,
  "\u2581ahead": 3705,
  "\u2581asking": 3706,
  "\u2581exercise": 3707,
  "\u2581\u092c\u0948\u0915\u0905\u092a": 3708,
  "he": 3709,
  "\u2581described": 3710,
  "\u2581\u0920\u0939\u0930\u093e": 3711,
  "\u2581\u092d\u093e\u0935\u0928\u093e": 3712,
  "le": 3713,
  "\u2581mountain": 3714,
  "\u2581Nay": 3715,
  "\u2581appreciate": 3716,
  "\u2581approach": 3717,
  "\u2581household": 3718,
  "\u2581guilty": 3719,
  "\u2581ill": 3720,
  "\u2581\u0932\u0921\u093c\u0915\u0940": 3721,
  "\u2581hurt": 3722,
  "\u2581stood": 3723,
  "\u2581\u092a\u094d\u0930\u0926\u0930\u094d\u0936\u0915": 3724,
  "\u2581gather": 3725,
  "\u2581sort": 3726,
  "\u2581outside": 3727,
  "\u2581Filter": 3728,
  "\u2581learning": 3729,
  "\u2581\u0935\u093f\u0928\u093e\u0936": 3730,
  "\u2581magazine": 3731,
  "\u2581\u0906\u0930\u093e\u092e": 3732,
  "ul": 3733,
  "\u2581Joshua": 3734,
  "\u2581garden": 3735,
  "\u2581Every": 3736,
  "\u2581strive": 3737,
  "\u2581\u0938\u0941\u0928\u094b": 3738,
  "by": 3739,
  "\u2581Note": 3740,
  "\u2581\u0918\u091f\u0928\u093e\u0913\u0902": 3741,
  "\u2581\u0918\u093e\u091f\u0947": 3742,
  "\u2581elder": 3743,
  "\u2581\u0939\u0924\u094d\u092f\u093e": 3744,
  "\u2581Should": 3745,
  "\u2581attend": 3746,
  "\u2581harmony": 3747,
  "\u2581witnesses": 3748,
  "\u2581\u0905\u091a\u093e\u0928\u0915": 3749,
  "\u2581\u0925\u094b\u0921\u093c\u0940": 3750,
  "\u2581\u0935\u093f\u0928\u0937\u094d\u091f": 3751,
  "\u0935\u093e\u0932\u093e": 3752,
  "\u2581White": 3753,
  "\u2581conscience": 3754,
  "\u2581moral": 3755,
  "\u2581background": 3756,
  "\u2581currently": 3757,
  "\u2581\u0907\u092c\u094d\u0930\u093e\u0928\u0940": 3758,
  "\u0939\u092e\u093e\u0930\u0947": 3759,
  "\u2581KDE": 3760,
  "\u2581enabled": 3761,
  "\u2581occasion": 3762,
  "\u2581practice": 3763,
  "\u2581dear": 3764,
  "\u2581property": 3765,
  "\u2581\u0915\u0939\u0947\u0917\u093e": 3766,
  "\u2581York": 3767,
  "\u2581foretold": 3768,
  "\u2581\u0926\u093e\u0916\u093c\u093f\u0932": 3769,
  "BA": 3770,
  "ah": 3771,
  "\u258124:": 3772,
  "\u2581experienced": 3773,
  "\u2581\u0927\u0948\u0930\u094d\u092f": 3774,
  "\u2581Contacts": 3775,
  "\u2581\u0915\u093f\u0928\u093e\u0930\u0947": 3776,
  "\u2581fail": 3777,
  "\u2581\u0928\u0947\u0905\u092e\u0924": 3778,
  "\u2581\u0938\u092b\u0932": 3779,
  "\u2581success": 3780,
  "\u2581\u091c\u093e\u0928\u0928\u093e": 3781,
  "\u2581Selected": 3782,
  "\u2581behalf": 3783,
  "\u2581\u0917\u094b\u092a\u0928": 3784,
  "\u2581\u092a\u0926": 3785,
  "\u2581apart": 3786,
  "\u2581swear": 3787,
  "\u2581\u092a\u094d\u0930": 3788,
  "\u2581\u0938\u094d\u0924\u0902\u092d": 3789,
  "\u2581Mount": 3790,
  "\u2581reasons": 3791,
  "\u2581simple": 3792,
  "\u2581waters": 3793,
  "\u2581\u0935\u094d\u092f\u0938\u094d\u0924": 3794,
  "\u2581busy": 3795,
  "\u2581wonder": 3796,
  "\u2581\u0932\u0947\u0917\u093e": 3797,
  "\u0909\u0928": 3798,
  "\u2581\u0936\u0940\u0918\u094d\u0930": 3799,
  "\u00b7": 3800,
  "\u2581minutes": 3801,
  "\u2581\u0935\u0930\u0928": 3802,
  "\u2581seems": 3803,
  "\u2581\u0905\u092a\u0930\u093e\u0927": 3804,
  "\u2581belong": 3805,
  "\u2581teachings": 3806,
  "\u2581training": 3807,
  "\u2581\u0938\u0939\u0947\u091c\u0928": 3808,
  "\u2581basis": 3809,
  "\u2581\u0926\u093e\u0935\u093e": 3810,
  "\u2581Location": 3811,
  "\u2581wronged": 3812,
  "la": 3813,
  "\u092e\u0928": 3814,
  "\u2581Z": 3815,
  "\u2581students": 3816,
  "\u2581writing": 3817,
  "\u2581\u092a\u093e\u0901\u091a": 3818,
  "\u2581\u092c\u093f\u0917\u093e\u0921\u093c": 3819,
  "\u2581Account": 3820,
  "\u2581girl": 3821,
  "\u2581psalmist": 3822,
  "\u2581\u0915\u0947\u0921\u0940\u0908": 3823,
  "\u2581\u092a\u0932\u091f": 3824,
  "\u2581\u0938\u0902\u092d\u0935": 3825,
  "ch": 3826,
  "\u2581flock": 3827,
  "\u0915\u094d\u092f\u094b\u0902\u0915\u093f": 3828,
  "\u2581Toggle": 3829,
  "\u2581\u091a\u0947\u0932\u0947": 3830,
  "\u2581\u092a\u093e\u0932\u0928\u0947": 3831,
  "\u2581\u092e\u0930\u0928\u0947": 3832,
  "\u2581\u092f\u0941\u0917": 3833,
  "\u2581\u0938\u093f\u0916\u093e\u0928\u0947": 3834,
  "\u2581business": 3835,
  "\u2581\u091f\u0942\u091f": 3836,
  "\u258160": 3837,
  "\u2581duty": 3838,
  "\u2581walking": 3839,
  "\u2581\u0939\u094b\u092e": 3840,
  "soever": 3841,
  "\u2581\u0915\u093e\u0928\u0942\u0928": 3842,
  "\u2581\u091a\u0932\u0928\u093e": 3843,
  "\u2581\u092a\u093e\u0928\u093e": 3844,
  "\u2581\u092c\u094d\u0930\u0948\u0938\u0947\u0930\u094b": 3845,
  "\u2581Properties": 3846,
  "\u2581challenge": 3847,
  "\u2581\u0926\u0930\u094d\u0926\u0928\u093e\u0915": 3848,
  ");": 3849,
  "ting": 3850,
  "\u2581root": 3851,
  "\u2581\u0907\u0932\u093e\u0915\u0947": 3852,
  "\u2581\u0924\u0930\u0940\u0915\u094b\u0902": 3853,
  "\u2581\u092a\u094d\u0930\u0924\u0940\u0915\u094d\u0937\u093e": 3854,
  "\u2581\u092d\u093f\u0928\u094d\u0928": 3855,
  "\u2581\u0939\u094c\u0938\u0932\u093e": 3856,
  "\u2581Tower": 3857,
  "\u2581burden": 3858,
  "\u2581turns": 3859,
  "\u2581\u0916\u0941\u0936\u0916\u092c\u0930\u0940": 3860,
  "\u2581sleep": 3861,
  "\u2581\u0939\u093f\u0915\u092e\u0924": 3862,
  "\u092e\u0917\u0930": 3863,
  "\u2581Messiah": 3864,
  "\u2581trees": 3865,
  "\u2581answers": 3866,
  "\u2581master": 3867,
  "\u2581\u092c\u093e\u0926\u0936\u093e\u0939": 3868,
  "\u2581car": 3869,
  "\u2581destination": 3870,
  "\u2581repentance": 3871,
  "\u2581Give": 3872,
  "\u2581choice": 3873,
  "\u2581completed": 3874,
  "\u2581remained": 3875,
  "\u2581\u0915\u092a\u0921\u093c\u0947": 3876,
  "\u2581\u092e\u093e\u0928\u0915": 3877,
  "\u2581accurate": 3878,
  "\u2581persons": 3879,
  "\u2581Al": 3880,
  "\u2581strengthen": 3881,
  "\u2581\u0916\u0941\u0932\u0940": 3882,
  "\u2581\u092d\u0915\u094d": 3883,
  "\u2581\u0935\u093e\u0930\u093f\u0938": 3884,
  "\u2581\u092a\u094d\u0930\u0949\u0915\u094d\u0938\u0940": 3885,
  "\u2581\u092c\u0940\u092e\u093e\u0930": 3886,
  "\u2581looked": 3887,
  "\u2581\u0932\u094c\u091f\u093e": 3888,
  "\u2581waiting": 3889,
  "\u2581\u0930\u094b\u091c\u093c": 3890,
  "\u2581\u0938\u092b\u0930": 3891,
  "\u2581\u0939\u092e\u092e\u0947\u0902": 3892,
  "\u2581\u0939\u0941\u0913\u0902": 3893,
  "\u2581aside": 3894,
  "\u2581\u092d\u0935\u093f\u0937\u094d\u092f\u0935\u0915\u094d": 3895,
  "\u2581\u092a\u0924\u094d\u0930": 3896,
  "\u092a\u094d\u0930\u092d\u0941": 3897,
  "\u2581quit": 3898,
  "\u2581\u0915\u093e\u092f\u092e": 3899,
  "\u2581\u0938\u094d\u0935\u0930\u094d\u0917\u0940\u092f": 3900,
  "\u2581Loading": 3901,
  "\u2581column": 3902,
  "\u2581\u0915\u093f\u0938\u094d\u092e": 3903,
  "\u2581\u092a\u0948\u0915\u0947\u091c": 3904,
  "\u2581Later": 3905,
  "\u2581Custom": 3906,
  "\u2581although": 3907,
  "\u2581helping": 3908,
  "\u2581\u090f\u0939\u0938\u093e\u0928": 3909,
  "like": 3910,
  "\u2581\u0905\u0928\u094d\u0924\u0924\u0903": 3911,
  "ri": 3912,
  "\u2581Out": 3913,
  "\u2581p": 3914,
  "\u2581visible": 3915,
  "\u2581Qur": 3916,
  "\u2581positive": 3917,
  "\u2581reported": 3918,
  "\u2581\u091a\u093e\u0939\u093e": 3919,
  "\u2581youths": 3920,
  "\u2581\u092c\u0928\u093e\u0908": 3921,
  "\u2581escape": 3922,
  "\u2581\u0906\u0938\u093e\u0928\u0940": 3923,
  "\u2581\u0928\u091c\u093c\u0930\u093f\u092f\u093e": 3924,
  "\u2581\u0938\u094b\u091a\u093f\u090f": 3925,
  "\u2581cried": 3926,
  "\u2581\u0938\u0930\u0932": 3927,
  "\u0913": 3928,
  "\u2581invalid": 3929,
  "\u2581numbers": 3930,
  "\u2581picture": 3931,
  "\u2581quickly": 3932,
  "\u2581\u0905\u0936\u0941\u0926\u094d\u0927": 3933,
  "\u2581\u091c\u0917\u0924": 3934,
  "\u2581\u091f\u093e\u0907\u092a": 3935,
  "\u2581\u0939": 3936,
  "\u258114,": 3937,
  "\u2581individual": 3938,
  "\u2581\u091f\u093f\u092a\u094d\u092a\u0923\u0940": 3939,
  "\u2581\u092c\u091a\u0947": 3940,
  "\u2581committed": 3941,
  "\u2581completely": 3942,
  "\u2581weak": 3943,
  "\u2581assignment": 3944,
  "\u2581\u0915\u093e\u092e\u092f\u093e\u092c": 3945,
  "\u2581\u0938\u093e\u0930\u0923\u0940": 3946,
  "\u2581de": 3947,
  "\u2581\u0938\u092e\u093e\u091c": 3948,
  "\u2581altar": 3949,
  "\u2581\u0926\u0941\u0936\u094d": 3950,
  "\u2581usually": 3951,
  "\u2581\u0935\u093f\u0936\u0947\u0937": 3952,
  "\u2581English": 3953,
  "\u2581fruits": 3954,
  "\u2581Isaac": 3955,
  "\u2581chief": 3956,
  "\u2581\u0907\u0928\u0915\u0947": 3957,
  "up": 3958,
  "\u2581final": 3959,
  "\u2581\u0907\u0938\u0915\u094b": 3960,
  "\u2581\u092e\u093e\u092f\u0928\u0947": 3961,
  "\u2581worked": 3962,
  "\u2581Others": 3963,
  "\u2581info": 3964,
  "\u2581relative": 3965,
  "\u2581\u091b\u093f\u092a\u093e": 3966,
  "\u2581immediately": 3967,
  "\u2581\u092c\u093f\u0928\u0924\u0940": 3968,
  "\u092e\u094b\u092e\u093f\u0928\u0940\u0928": 3969,
  "\u2581Eve": 3970,
  "\u2581Hour": 3971,
  "\u2581lesson": 3972,
  "\u2581toolbar": 3973,
  "\u2581\u091c\u0939\u0928\u094d\u0928\u092e": 3974,
  "\u2581\u0926\u0930\u094d\u0926": 3975,
  "\u2581\u0928\u092e\u094d\u0930\u0924\u093e": 3976,
  "\u2581\u0928\u093f\u0930\u093e\u0936": 3977,
  "\u2581\u092b\u0948\u0938\u0932\u0947": 3978,
  "\u2581\u0935\u093f\u0938\u094d\u0924\u093e\u0930": 3979,
  "\u2581Lot": 3980,
  "\u2581\u0905\u0927\u093f\u0938\u0942\u091a\u0928\u093e": 3981,
  "\u2581Nevertheless": 3982,
  "\u2581menu": 3983,
  "\u2581story": 3984,
  "\u2581establish": 3985,
  "\u2581offspring": 3986,
  "\u2581party": 3987,
  "\u2581\u0926\u0947\u0928\u0947\u0935\u093e\u0932\u093e": 3988,
  "\u2581Compare": 3989,
  "\u2581partners": 3990,
  "im": 3991,
  "\u2581clipboard": 3992,
  "\u2581lose": 3993,
  "\u2581regularly": 3994,
  "\u2581\u0908\u0938\u093e": 3995,
  "\u2581\u0917\u0932\u0924\u0940": 3996,
  "\u2581\u091c\u0902\u0917\u0932": 3997,
  "\u2581\u0924\u092d\u0940": 3998,
  "\u2581\u0915\u0949\u092a\u0940": 3999,
  "\u2581\u092c\u0941\u0932\u093e\u092f\u093e": 4000,
  "\u2581refused": 4001,
  "\u2581\u091c\u093c\u093e\u0932\u093f\u092e\u094b\u0902": 4002,
  "\u2581\u091c\u094b\u0921\u093c\u093e": 4003,
  "\u2581\u091f\u0948\u0917": 4004,
  "\u2581\u0926\u093e\u0928\u093f\u092f\u094d\u092f\u0947\u0932": 4005,
  "\u2581\u092c\u0924\u093e\u0928\u0947": 4006,
  "\u2581\u0938\u092e\u093e\u092a\u094d\u0924\u093f": 4007,
  "\u2581keeping": 4008,
  "\u2581\u0928\u093f\u0915\u093e\u0932\u093e": 4009,
  "\u2581\u0939\u091f\u0915\u0930": 4010,
  "\u093e\u0908": 4011,
  "\u2581conditions": 4012,
  "\u2581\u0905\u092a": 4013,
  "\u2581\u091c\u094b\u0921\u093c\u0947": 4014,
  "\u0932\u0947": 4015,
  "\u2581length": 4016,
  "\u2581network": 4017,
  "\u2581obedient": 4018,
  "\u2581\u092c\u0948\u0920\u093e": 4019,
  "\u2581actor": 4020,
  "\u2581possess": 4021,
  "\u2581\u0932\u0917\u093e\u0928\u0947": 4022,
  "\u2581cattle": 4023,
  "\u2581miles": 4024,
  "\u2581header": 4025,
  "\u2581moving": 4026,
  "\u2581related": 4027,
  "\u2581tribulation": 4028,
  "\u2581\u092a\u094d\u0930\u093f\u092f": 4029,
  "\u2581\u091a\u093e\u0939\u0924\u0940": 4030,
  "\u2581\u0926\u0947\u0916\u0947": 4031,
  "\u2581\u0939\u094b\u0907\u090f": 4032,
  "\u2581Group": 4033,
  "\u2581throne": 4034,
  "\u2581\u0905\u0928\u092e\u094b\u0932": 4035,
  "\u2581\u092a\u094b\u0930\u094d\u091f": 4036,
  "ity": 4037,
  "\u2581\u0905\u0928\u0941\u0915\u094d\u0930\u093f\u092f\u093e": 4038,
  "\u0924\u093f\u092f\u094b\u0902": 4039,
  "\u2581General": 4040,
  "\u2581\u0905\u0927\u093f\u0935\u0947\u0936\u0928": 4041,
  "\u2581\u0905\u0939\u0932": 4042,
  "\u2581\u091a\u0941\u0928": 4043,
  "\u2581\u092c\u0947\u091f\u094b\u0902": 4044,
  "\u2581becomes": 4045,
  "\u2581\u090f\u0915\u0924\u093e": 4046,
  "\u258120.": 4047,
  "\u2581Awake": 4048,
  "\u2581explain": 4049,
  "\u2581lo": 4050,
  "\u2581\u0905\u0924\u093f": 4051,
  "\u2581\u0915\u0939\u0947": 4052,
  "\u2581\u091c\u093c\u093f\u092e\u094d\u092e\u0947\u0926\u093e\u0930": 4053,
  "\u2581\u092a\u094d\u0930\u0917\u091f": 4054,
  "\u258119.": 4055,
  "\u2581\u0909\u0924\u093e\u0930\u093e": 4056,
  "\u2581lack": 4057,
  "\u2581\u0916\u094b": 4058,
  "\u2581\u092b\u091c\u093c": 4059,
  "\u2581\u0935\u093e\u0923\u0940": 4060,
  "\u2581\u0939\u091c\u093e\u0930": 4061,
  "\u2581mate": 4062,
  "\u2581visited": 4063,
  "\u2581Configure": 4064,
  "\u2581protection": 4065,
  "color": 4066,
  "\u2581Hall": 4067,
  "\u2581Perhaps": 4068,
  "\u2581join": 4069,
  "\u2581steps": 4070,
  "\u2581\u092a\u094d\u0930\u092f\u093e\u0938": 4071,
  "ent": 4072,
  "\u2581\u0905\u0935\u0924\u0930": 4073,
  "\u2581\u0926\u0915\u094d\u0937\u093f\u0923": 4074,
  "\u2581\u0928\u092f\u0947": 4075,
  "\u2581\u0932\u093e\u0928\u0947\u0935\u093e\u0932\u094b": 4076,
  "\u2581idea": 4077,
  "\u2581\u0924\u0915\u0932\u0940\u092b\u093c": 4078,
  "\u2581\u0938\u094d\u0925\u093e\u092a\u093f\u0924": 4079,
  "\u2581\u0968\u096a": 4080,
  "ist": 4081,
  "\u2581\u0924\u0930\u0940\u0915\u093c\u0947": 4082,
  "\u2581IN": 4083,
  "\u2581War": 4084,
  "\u2581develop": 4085,
  "\u2581education": 4086,
  "\u2581\u091c\u0928\u094d\u0928\u0924": 4087,
  "\u2581\u0938\u092e\u094d\u092e\u093f\u0932\u093f\u0924": 4088,
  "\u2581\u0920\u0939\u0930\u093e\u090f": 4089,
  "\u2581\u092c\u093e\u0939\u0930\u0940": 4090,
  "\u258110,": 4091,
  "\u2581arrived": 4092,
  "\u2581oil": 4093,
  "\u2581\u0917\u0923\u0928\u093e": 4094,
  "\u2581\u092e": 4095,
  "\u2581front": 4096,
  "\u2581trials": 4097,
  "\u2581belief": 4098,
  "\u2581practical": 4099,
  "\u2581step": 4100,
  "\u2581thine": 4101,
  "\u2581\u0915\u093c\u0924\u094d\u0932": 4102,
  "\u2581\u0917\u0935\u093e\u0939\u094b\u0902": 4103,
  "\u2581\u092a\u0942\u091b\u0924\u0947": 4104,
  "\u2581Play": 4105,
  "\u2581pre": 4106,
  "\u2581punish": 4107,
  "\u2581treat": 4108,
  "\u2581\u091a\u0932\u093e\u0928\u0947": 4109,
  "\u2581\u0926\u0942\u0927": 4110,
  "\u2581courage": 4111,
  "\u2581loves": 4112,
  "\u2581\u0932\u093e\u0913": 4113,
  "\u2581portion": 4114,
  "\u2581\u091a\u0941\u0928\u093e\u0935": 4115,
  "Let": 4116,
  "Who": 4117,
  "\u2581invited": 4118,
  "\u2581trial": 4119,
  "\u2581\u0915\u0948\u0936": 4120,
  "\u2581\u0916\u0921\u093c\u0940": 4121,
  "\u2581\u092c\u0928\u094d\u0926\u0947": 4122,
  "\u2581\u0909\u0924\u093e\u0930": 4123,
  "\u25817,": 4124,
  "\u0915\u093e\u0930": 4125,
  "\u0935\u0940\u0902": 4126,
  "\u2581Faith": 4127,
  "\u2581replace": 4128,
  "\u2581\u092a\u0930\u0939\u0947\u091c\u093c\u0917\u093e\u0930": 4129,
  "\u2581cover": 4130,
  "\u2581\u091c\u0940\u0924": 4131,
  "\u2581persecution": 4132,
  "\u2581\u092a\u0940\u091b\u093e": 4133,
  "weather": 4134,
  "\u2581f": 4135,
  "\u2581sake": 4136,
  "\u2581sought": 4137,
  "\u2581\u0928\u092e\u094d\u0930": 4138,
  "OR": 4139,
  "\u2581inheritance": 4140,
  "\u2581unable": 4141,
  "\u2581\u0916\u0941\u0932\u093e": 4142,
  "\u258121.": 4143,
  "\u2581details": 4144,
  "\u2581Has": 4145,
  "\u2581recognize": 4146,
  "\u2581\u091c\u093e\u0928\u0935\u0930\u094b\u0902": 4147,
  "\u2581\u0938\u0942\u0930\u094d\u092f": 4148,
  "\u2581sometimes": 4149,
  "\u2581\u092b\u094c\u0930\u0928": 4150,
  "\u2581Run": 4151,
  "\u2581attachment": 4152,
  "\u2581prevent": 4153,
  "\u2581tells": 4154,
  "\u2581\u092e\u0928\u093e": 4155,
  "\u2581resurrected": 4156,
  "\u2581\u0906\u0924\u094d\u092e\u093f\u0915": 4157,
  "\u2581\u092a\u094d\u0930\u0926\u0930\u094d\u0936\u0928": 4158,
  "\u2581\u092a\u094d\u0930\u0935\u093f\u0937\u094d\u091f\u093f": 4159,
  "\u2581\u092c\u0938\u094d\u0924\u0940": 4160,
  "\u2581\u0930\u0926\u094d\u0926\u0940": 4161,
  "\u2581\u0916\u0930\u093e\u092c": 4162,
  "\u2581\u092e\u0926\u0926\u0917\u093e\u0930": 4163,
  "\u2581\u0932\u093e\u0907\u0928": 4164,
  "\u094d\u092f": 4165,
  "\u2581sinners": 4166,
  "\u2581sit": 4167,
  "\u2581\u091a\u0932\u0915\u0930": 4168,
  "\u2581discipline": 4169,
  "\u2581specify": 4170,
  "\u2581\u092a\u0921\u093c\u0924\u0940": 4171,
  "\u2581\u092b\u093c\u0930\u093f\u0936\u094d\u0924\u0947": 4172,
  "\u2581enable": 4173,
  "\u2581\u091c\u093c\u093f\u0902\u0926\u093e": 4174,
  "\u2581\u092c\u0922\u093c\u093e\u0928\u0947": 4175,
  "\u2581guides": 4176,
  "\u2581\u092e\u0948\u0926\u093e\u0928": 4177,
  "\u2581excellent": 4178,
  "\u2581\u0917\u0902\u0924\u0935\u094d\u092f": 4179,
  "\u2581\u0938\u092c\u0915\u0947": 4180,
  "\u092a\u0942\u0930\u094d\u0935\u0915": 4181,
  "\u0949": 4182,
  "\u2581Oh": 4183,
  "\u2581bestowed": 4184,
  "\u2581\u0928\u0926\u0940": 4185,
  "\u092c\u0947": 4186,
  "\u2581chose": 4187,
  "\u0932\u0940": 4188,
  "\u2581generations": 4189,
  "\u2581speed": 4190,
  "\u2581\u0905\u0926\u093e": 4191,
  "\u2581\u092c\u0930\u0938": 4192,
  "No": 4193,
  "\u0928\u093f\u0936\u093e\u0928\u093f\u092f\u094b\u0902": 4194,
  "\u258111,": 4195,
  "\u2581male": 4196,
  "\u2581stone": 4197,
  "\u2581\u091a\u0932\u093e\u090f\u0901": 4198,
  "\u2581\u092a\u0930\u094d\u0935\u0924": 4199,
  "\u2581\u0936\u092e\u0942\u090f\u0932": 4200,
  "\u2581\u0938\u094d\u0935\u093e\u0917\u0924": 4201,
  "\u092e\u0941\u091d\u0947": 4202,
  "\u2581proxy": 4203,
  "\u2581\u091a\u0932\u0940": 4204,
  "um": 4205,
  "\u258123.": 4206,
  "\u2581private": 4207,
  "\u2581wishes": 4208,
  "ate": 4209,
  "\u0905\u092c": 4210,
  "\u2581amount": 4211,
  "\u2581tab": 4212,
  "\u2581\u0926\u0941\u0916\u0926": 4213,
  "\u2581\u0928\u093f\u0930\u094d\u092f\u093e\u0924": 4214,
  "\u2581\u092c\u0926\u0932\u0928\u0947": 4215,
  "ling": 4216,
  "\u2581Each": 4217,
  "\u2581HTTP": 4218,
  "\u2581Love": 4219,
  "\u2581Mode": 4220,
  "\u2581Man": 4221,
  "\u2581description": 4222,
  "\u2581\u092a\u094d\u0930\u0925\u092e": 4223,
  "\u2581calling": 4224,
  "\u2581\u0936\u0947\u0937": 4225,
  "\u2581print": 4226,
  "\u2581string": 4227,
  "\u091a": 4228,
  "\u2581points": 4229,
  "\u2581\u0907\u0938\u0930\u093e\u0908\u0932": 4230,
  "\u2581\u092b\u093c\u093f\u0930\u0914\u0928": 4231,
  "\u2581associated": 4232,
  "\u2581company": 4233,
  "\u2581repent": 4234,
  "\u2581\u0906\u0930": 4235,
  "\u2581\u0932\u0917\u093e\u0915\u0930": 4236,
  "\u2581Brother": 4237,
  "\u2581Soon": 4238,
  "\u2581font": 4239,
  "\u2581\u0938\u0902\u0917\u094d\u0930\u0939": 4240,
  "\u2581becoming": 4241,
  "\u2581slot": 4242,
  "\u2581successful": 4243,
  "\u2581wherein": 4244,
  "\u2581\u092e\u0939\u0924\u094d\u0924\u094d\u0935\u092a\u0942\u0930\u094d\u0923": 4245,
  "\u2581\u0932\u093f\u0916\u0947": 4246,
  "\u258114:": 4247,
  "\u2581Also": 4248,
  "\u2581convention": 4249,
  "\u2581interested": 4250,
  "\u2581nature": 4251,
  "\u2581None": 4252,
  "\u2581sincere": 4253,
  "\u2581\u0909\u0924\u094d\u092a\u0928\u094d": 4254,
  "\u2581\u092a\u0939\u0941\u0902\u091a\u093e": 4255,
  "\u2581\u0938\u0935\u093e\u0930": 4256,
  "\u2581\u0939\u093f\u0938\u094d\u0938\u0947": 4257,
  "\u2581contrast": 4258,
  "\u2581female": 4259,
  "\u2581\u0928\u093e\u0924\u0947": 4260,
  "\u2581birds": 4261,
  "\u2581encouraged": 4262,
  "\u2581generation": 4263,
  "\u2581restore": 4264,
  "\u2581\u0906\u092a\u0938\u0947": 4265,
  "\u2581\u0924\u0932\u093e\u0936": 4266,
  "\u2581tribe": 4267,
  "\u2581warner": 4268,
  "\u2581\u0920\u0939\u0930\u0947": 4269,
  "\u2581\u0907\u091c\u093e\u091c\u093c\u0924": 4270,
  "\u2581\u0930\u093e\u0937\u094d\u091f\u094d\u0930": 4271,
  "\u258170": 4272,
  "\u2581\u0924\u0947\u0932": 4273,
  "ies": 4274,
  "\u2581South": 4275,
  "\u2581existing": 4276,
  "\u2581\u0938\u092c\u0915": 4277,
  "\u0905\u091a\u094d\u091b\u093e": 4278,
  "\u2581\u0939\u0930\u0947\u0915": 4279,
  "Why": 4280,
  "\u2581heavy": 4281,
  "\u2581weight": 4282,
  "\u2581\u0928\u092b\u0930\u0924": 4283,
  "\u2581\u0939\u091c\u093c\u093e\u0930": 4284,
  "\u2581overcome": 4285,
  "\u0935\u093e\u0938\u0940": 4286,
  "\u2581relatives": 4287,
  "\u2581\u090f\u0935\u0902": 4288,
  "\u2581\u0938\u0915\u0940": 4289,
  "\u2581recent": 4290,
  "\u2581slaves": 4291,
  "\u2581stars": 4292,
  "\u2581wilderness": 4293,
  "\u2581\u0915\u093f\u0924\u093e\u092c\u094b\u0902": 4294,
  "\u2581\u092f\u0939\u094b\u0936\u0942": 4295,
  "\u2581\u0907\u0938\u092a\u0930": 4296,
  "\u2581Yeah": 4297,
  "\u2581obedience": 4298,
  "\u2581\u0938\u093f\u0930\u094d\u092b\u093c": 4299,
  "\u2581\u0915\u0939\u0915\u0930": 4300,
  "\u2581\u0928\u0937\u094d\u091f": 4301,
  "rs": 4302,
  "\u2581Catholic": 4303,
  "\u2581screen": 4304,
  "\u2581\u0916\u0930\u094d\u091a": 4305,
  "\u2581\u0928\u0940\u0924\u093f": 4306,
  "\u2581\u0938\u092e\u0938\u094d\u092f\u093e\u0913\u0902": 4307,
  "\u2581Gardens": 4308,
  "\u2581\u0905\u0915\u0947\u0932\u093e": 4309,
  "\u2581\u0907": 4310,
  "\u2581\u091a\u093f\u0928\u094d\u0939": 4311,
  "\u2581\u092a\u094d\u0930\u0924\u093f\u091c\u094d\u091e\u093e": 4312,
  "\u2581\u0936\u0915\u094d\u0924\u093f": 4313,
  "\u2581Table": 4314,
  "\u2581delight": 4315,
  "\u2581touch": 4316,
  "\u2581\u0926\u0947\u0916\u0947\u0902\u0917\u0947": 4317,
  "\u2581declared": 4318,
  "\u2581\u092a\u093f\u091b\u0932\u0940": 4319,
  "\u2581express": 4320,
  "\u2581enjoyed": 4321,
  "\u2581goal": 4322,
  "\u2581terrible": 4323,
  "\u2581\u0915\u093f\u092f\u0947": 4324,
  "\u2581seized": 4325,
  "\u2581recipients": 4326,
  "\u2581\u092a\u0948\u0938\u093e": 4327,
  "\u2581\u092b\u093e\u092f\u0926\u0947": 4328,
  "\u2581\u0939\u093e\u0928\u093f": 4329,
  "\u2581\u0936\u093e\u092e": 4330,
  "\u2581Two": 4331,
  "be": 4332,
  "\u2581Ephesians": 4333,
  "\u2581\u0911\u0902\u0916": 4334,
  "\u2581\u092a\u0915\u094d\u0915\u093e": 4335,
  "\u2581\u0938\u094d\u091f\u094d\u0930\u093f\u0902\u0917": 4336,
  "\u2581rise": 4337,
  "\u2581\u0926\u093e\u0935\u093f\u0926": 4338,
  "\u2581Status": 4339,
  "\u2581opening": 4340,
  "\u2581proud": 4341,
  "\u2581sinful": 4342,
  "\u2581youth": 4343,
  "\u2581\u0928\u093e\u0908\u0902": 4344,
  "\u2581avail": 4345,
  "\u2581\u0924\u0941\u092e\u094d\u0939\u0947": 4346,
  "As": 4347,
  "\u25811914": 4348,
  "\u2581\u0906\u0936\u094d": 4349,
  "\u2581\u0935\u094d\u092f\u0930\u094d\u0925": 4350,
  "\u2581Version": 4351,
  "\u2581Whoever": 4352,
  "\u2581\u0915\u0930\u0928\u0947\u0935\u093e\u0932\u0940": 4353,
  "\u2581feeling": 4354,
  "\u2581\u091a\u0948\u0928": 4355,
  "They": 4356,
  "\u258112,": 4357,
  "\u2581burnt": 4358,
  "\u2581\u092e\u093f\u0936\u0928\u0930\u0940": 4359,
  "\u2581\u0938\u091a\u0947\u0924": 4360,
  "\u2581\u0938\u0947\u0928\u093e\u0913\u0902": 4361,
  "\u2581attack": 4362,
  "\u2581grant": 4363,
  "\u2581riches": 4364,
  "\u2581\u0906\u090f\u0901": 4365,
  "\u2581\u092b\u093f\u0932\u094d\u091f\u0930": 4366,
  "\u2581abide": 4367,
  "\u2581\u091c\u093e\u0928\u0935\u0930": 4368,
  "\u090f\u0902": 4369,
  "\u2581big": 4370,
  "\u2581centuries": 4371,
  "\u2581dedicated": 4372,
  "\u2581humility": 4373,
  "\u2581companions": 4374,
  "\u2581sees": 4375,
  "J": 4376,
  "\u258116,": 4377,
  "\u2581separate": 4378,
  "\u2581\u0907\u0902\u0924\u091c\u093c\u093e\u0930": 4379,
  "\u2581\u0932\u093e\u0916\u094b\u0902": 4380,
  "\u2581\u0938\u0902\u0915\u094d\u0930\u093f\u092f\u093e": 4381,
  "\u2581sends": 4382,
  "\u2581\u092b\u094d\u0932\u0948\u0917": 4383,
  "\u2581political": 4384,
  "\u2581\u0906\u0901\u0915\u0921\u093c\u093e": 4385,
  "\u2581\u091b\u0942": 4386,
  "\u2581\u0928\u093f\u092f\u0941\u0915\u094d": 4387,
  "\u2581\u092c\u0928\u0915\u0930": 4388,
  "\u2581\u0935\u0947\u0926\u0940": 4389,
  "\u0930\u093e": 4390,
  "\u2581admonition": 4391,
  "\u2581idols": 4392,
  "\u2581\u0911\u092b": 4393,
  "Add": 4394,
  "\u2581\u0917\u0941\u0923\u094b\u0902": 4395,
  "\u2581\u0921\u0930\u093e\u0928\u0947": 4396,
  "\u2581\u092e\u093f\u091f\u093e\u0928\u0947": 4397,
  "\u2581worldly": 4398,
  "\u2581\u092e\u0941\u092e\u0915\u093f\u0928": 4399,
  "\u0905\u0924": 4400,
  "\u2581lawful": 4401,
  "\u2581pressure": 4402,
  "\u2581\u090a\u0901\u091a\u093e\u0908": 4403,
  "\u2581\u0921\u0940": 4404,
  "\u258117:": 4405,
  "\u2581broken": 4406,
  "\u2581\u092c\u0917": 4407,
  "\u2581\u092f\u094b\u091c\u0928\u093e": 4408,
  "\u2581\u0938\u094b\u091a\u0924\u0947": 4409,
  "\u2581\u0939\u0932\u093e\u0915": 4410,
  "\u2581increased": 4411,
  "\u2581\u091c": 4412,
  "ne": 4413,
  "\u2581interests": 4414,
  "\u2581\u0917\u0939\u0930\u0940": 4415,
  "\u2581\u092e\u0930\u091c\u093c\u0940": 4416,
  "\u2581Description": 4417,
  "out": 4418,
  "\u2581distress": 4419,
  "\u2581\u092a\u093e\u092f\u0940": 4420,
  "\u2581\u0906\u0926\u092e\u093f\u092f\u094b\u0902": 4421,
  "\u2581\u0916\u0941\u0932\u0947": 4422,
  "\u2581\u0928\u093f\u0915\u0932\u0947": 4423,
  "\u2581\u092e\u093e\u0927\u094d\u092f\u092e": 4424,
  "\u2581mailbox": 4425,
  "\u2581\u0906\u0936\u0940\u0937\u0947\u0902": 4426,
  "\u2581\u0936\u092a\u0925": 4427,
  "\u2581Christendom": 4428,
  "\u2581\u0915\u0915\u094d\u0937": 4429,
  "\u2581\u0926\u094d\u0935\u0940\u092a": 4430,
  "\u2581\u0936\u094b\u0915": 4431,
  "\u2581normal": 4432,
  "\u2581\u0915\u0930\u0947\u0917\u0940": 4433,
  "\u2581\u0939\u093e\u0930": 4434,
  "\u2581\u0936\u093e\u0938\u0928": 4435,
  "\u0966\u0966\u0966": 4436,
  "\u2581row": 4437,
  "\u2581\u0905\u0915\u0947\u0932\u0947": 4438,
  "\u2581\u092d\u093e\u0935\u0928\u093e\u0913\u0902": 4439,
  "\u2581Stop": 4440,
  "\u2581marry": 4441,
  "\u2581plugins": 4442,
  "\u2581\u092a\u0948\u0930\u0935\u0940": 4443,
  "\u2581\u0938\u0942\u091a\u093f\u0924": 4444,
  "\u2581affection": 4445,
  "\u2581journey": 4446,
  "\u2581played": 4447,
  "\u2581struck": 4448,
  "\u2581whatsoever": 4449,
  "\u2581Place": 4450,
  "\u2581\u0926\u094b\u0938\u094d\u0924\u094b\u0902": 4451,
  "\u2581\u092c\u094b\u0932\u0928\u0947": 4452,
  "\u2581\u0938\u0939": 4453,
  "if": 4454,
  "\u2581Full": 4455,
  "\u2581\u0938\u093f\u0938\u094d\u091f\u092e": 4456,
  "\u2581Video": 4457,
  "\u2581\u0915\u093e\u092b\u093f\u0930\u094b\u0902": 4458,
  "\u2581\u091d\u0942\u0920\u093e": 4459,
  "\u2581\u0930\u094b\u0915\u0947\u0902": 4460,
  "\u2581\u0938\u0940\u0916\u0928\u0947": 4461,
  "\u2581missionary": 4462,
  "\u2581traveling": 4463,
  "\u2581\u092a\u0939\u093e\u0921\u093c\u094b\u0902": 4464,
  "\u2581limit": 4465,
  "\u2581focus": 4466,
  "\u2581\u092a\u0942\u091b\u094b": 4467,
  "\u2581\u092f\u0942": 4468,
  "se": 4469,
  "this": 4470,
  "\u2581personality": 4471,
  "\u2581\u0906\u0935\u0936\u094d\u092f\u0915": 4472,
  "\u2581\u0928\u093f\u092f\u092e\u094b\u0902": 4473,
  "\u2581\u092a\u093e\u090f\u0917\u093e": 4474,
  "\u2581\u0930\u093f\u092e\u094b\u091f": 4475,
  "that": 4476,
  "\u2581foundation": 4477,
  "\u2581\u0938\u092e\u0930\u094d\u092a\u093f\u0924": 4478,
  "\u2581\u0964...": 4479,
  "Open": 4480,
  "\u2581Hide": 4481,
  "\u2581output": 4482,
  "\u2581\u0932\u093e\u0916": 4483,
  "\u2581\u0935\u0943\u0915\u094d\u0937": 4484,
  "less": 4485,
  "\u2581\u0905\u0917\u094d\u0930\u0947\u0937\u093f\u0924": 4486,
  "\u2581community": 4487,
  "\u2581falsehood": 4488,
  "\u2581imperfect": 4489,
  "\u2581\u092a\u093e\u0902\u091a": 4490,
  "\u2581\u092a\u093e\u092a\u094b\u0902": 4491,
  "\u2581argument": 4492,
  "\u2581flags": 4493,
  "\u2581sacrifices": 4494,
  "\u2581\u0906\u0920": 4495,
  "\u2581\u0915\u0939\u0947\u0902": 4496,
  "\u2581\u0926\u092c\u093e\u0935": 4497,
  "\u2581\u092c\u0924\u093e\u090f": 4498,
  "\u0905": 4499,
  "\u2581\u0905\u0930\u094d\u091c\u093c": 4500,
  "\u2581\u0918\u094b\u0921\u093c\u0947": 4501,
  "\u2581\u0926\u0947\u0917\u0947\u0902": 4502,
  "\u2581Free": 4503,
  "\u2581\u0932\u0921\u093c\u0915\u093e": 4504,
  "\u2581\u0968\u0967": 4505,
  "\u2581gate": 4506,
  "\u2581identify": 4507,
  "\u2581\u092f\u0926\u094d\u092f\u092a\u093f": 4508,
  "\u2581\u0924": 4509,
  "\u2581\u0926\u0942\u0930\u0938\u094d\u0925": 4510,
  "\u2581\u0927\u0928\u094d\u092f": 4511,
  "\u2581\u0938\u0941\u0928\u0940": 4512,
  "Q": 4513,
  "ia": 4514,
  "\u2581Similarly": 4515,
  "\u2581\u0909\u092a\u0938\u094d\u0925\u093f\u0924\u093f": 4516,
  "\u2581\u0915\u093c\u0941\u0930\u0906\u0928": 4517,
  "\u2581\u0916\u094d\u0935\u093e\u0939": 4518,
  "\u2581\u092b\u093c\u0930\u093f\u0936\u094d\u0924\u094b\u0902": 4519,
  "\u2581Document": 4520,
  "\u2581Phone": 4521,
  "Edit": 4522,
  "\u2581Tell": 4523,
  "\u2581air": 4524,
  "\u2581\u0935\u093e\u0926\u0947": 4525,
  "\u2581stones": 4526,
  "\u2581\u0916\u093c\u0941\u0936\u0940": 4527,
  "\u2581\u092c\u0922\u093c\u0924\u0940": 4528,
  "\u2581\u0936\u093e\u0930\u0940\u0930\u093f\u0915": 4529,
  "\u258122,": 4530,
  "\u2581favour": 4531,
  "\u2581prepare": 4532,
  "\u2581\u0920\u093e\u0928": 4533,
  "\u2581\u092d\u0947\u0926": 4534,
  "\u2581India": 4535,
  "\u2581abode": 4536,
  "\u2581\u0915\u0949\u0928\u094d\u092b\u093c\u093f\u0917\u0930": 4537,
  "\u2581\u091d\u0942\u0920\u0940": 4538,
  "\u2581\u0936\u093e\u0916\u093e": 4539,
  "\u2581claim": 4540,
  "\u2581commandments": 4541,
  "\u2581\u0917\u0939\u0930\u093e\u0908": 4542,
  "\u2581\u092c\u093e\u0930\u0940": 4543,
  "\u0915\u094b\u0908": 4544,
  "\u2581Elijah": 4545,
  "\u2581Never": 4546,
  "\u2581\u0905\u0928\u0941\u0938\u094d\u092e\u093e\u0930\u0915": 4547,
  "\u2581\u091c\u0939\u093e\u091c\u093c": 4548,
  "\u2581\u0939\u093f\u092b\u093e\u091c\u093c\u0924": 4549,
  "\u2581Over": 4550,
  "\u2581encourage": 4551,
  "\u2581\u0905\u0939\u092e": 4552,
  "\u0907\u0928": 4553,
  "\u0915\u0941\u091b": 4554,
  "\u2581computer": 4555,
  "\u2581low": 4556,
  "\u2581\u0907\u0932\u093e\u091c": 4557,
  "\u2581blame": 4558,
  "\u2581meant": 4559,
  "\u2581wrongdoers": 4560,
  "\u2581\u090a\u0902\u091a\u093e\u0908": 4561,
  "\u2581\u0917\u0922\u093c": 4562,
  "\u2581\u092a\u094d\u0930\u0936\u094d\u0928": 4563,
  "\u2581\u092b\u0947\u0902\u0915": 4564,
  "ian": 4565,
  "\u2581Brasero": 4566,
  "\u2581automatically": 4567,
  "\u2581cards": 4568,
  "\u2581encouragement": 4569,
  "\u2581\u0905\u0927\u0930\u094d\u092e": 4570,
  "\u2581\u092c\u093e\u0917\u093c\u094b\u0902": 4571,
  "\u2581observed": 4572,
  "\u2581\u0926\u094b\u0938\u094d\u0924\u0940": 4573,
  "\u2581Manager": 4574,
  "\u2581per": 4575,
  "\u2581responsible": 4576,
  "\u2581\u0905\u0939\u092e\u093f\u092f\u0924": 4577,
  "\u2581\u092e\u094c\u091c\u093c\u0942\u0926\u093e": 4578,
  "\u2581\u0938\u0940\u0916\u0924\u0947": 4579,
  "\u2581curse": 4580,
  "\u2581proof": 4581,
  "\u2581suffered": 4582,
  "\u2581\u0915\u0939\u093e\u0928\u0940": 4583,
  "\u2581\u091a\u093e\u0939\u0947\u0902": 4584,
  "\u2581\u0926\u0939\u0932\u093e": 4585,
  "\u2581\u092a\u0930\u0938\u0924\u093f\u0936": 4586,
  "\u2581permanently": 4587,
  "\u2581\u0915\u093c\u0941\u092c\u0942\u0932": 4588,
  "\u2581\u0935\u093f\u0936\u094d\u0932\u0947\u0937\u0923": 4589,
  "\u2581properties": 4590,
  "\u2581\u0938\u091c\u0917": 4591,
  "\u2581Among": 4592,
  "\u2581Disc": 4593,
  "\u2581Through": 4594,
  "\u2581Value": 4595,
  "\u2581\u091c\u0947\u0932": 4596,
  "\u2581\u092a\u0936\u0941": 4597,
  "\u2581\u092c\u093e": 4598,
  "?'": 4599,
  "id": 4600,
  "\u0924\u0942": 4601,
  "\u2581court": 4602,
  "\u2581goodness": 4603,
  "\u2581\u0907\u0915\u091f\u094d\u0920\u0947": 4604,
  "\u2581\u092a\u0940\u0922\u093c\u0940": 4605,
  "\u2581\u092d\u0947\u0921\u093c\u094b\u0902": 4606,
  "\u2581\u0938\u092b\u0932\u0924\u093e": 4607,
  "\u2581\u0938\u094d\u0915\u094d\u0930\u093f\u092a\u094d\u091f": 4608,
  "\u2581width": 4609,
  "\u2581\u0915\u093e\u0936": 4610,
  "\u2581Judgment": 4611,
  "\u2581earned": 4612,
  "\u2581plan": 4613,
  "\u2581upright": 4614,
  "\u2581\u091f\u0941\u0915\u0921\u093c\u0947": 4615,
  "\u2581trouble": 4616,
  "\u2581\u0909\u0926\u093e\u0930": 4617,
  "\u2581\u0935\u0940": 4618,
  "Y": 4619,
  "\u0906\u0916\u093c\u093f\u0930": 4620,
  "\u258134": 4621,
  "\u2581TO": 4622,
  "\u2581feed": 4623,
  "\u2581\u0938\u093f\u0926\u094d\u0927\u093e\u0902\u0924": 4624,
  "one": 4625,
  "\u2581performed": 4626,
  "\u2581pride": 4627,
  "\u2581\u092c\u0941\u0932\u093e": 4628,
  "\u2581\u0930\u093e\u091c\u093c\u0940": 4629,
  "\u2581\u0930\u094b\u092e": 4630,
  "\u2581\u0935\u0936": 4631,
  "\u2581\u092c\u0928\u093e\u0924\u093e": 4632,
  "\u2581\u092e\u0928\u0928": 4633,
  "\u2581Gilead": 4634,
  "\u2581bounty": 4635,
  "\u2581deeply": 4636,
  "\u2581\u0926\u0947\u0928\u0947\u0935\u093e\u0932\u0947": 4637,
  "\u2581\u092a\u094d\u0930\u0924\u093f\u0915\u094d\u0930\u093f\u092f\u093e": 4638,
  "\u2581\u0935\u093f\u0936\u093f\u0937\u094d\u091f": 4639,
  "\u2581\u0938\u0902\u0932\u0917\u094d\u0928": 4640,
  "\u2581wall": 4641,
  "\u2581\u0936\u093f\u0937\u094d\u092f": 4642,
  "\u0921\u0940": 4643,
  "\u0923": 4644,
  "\u092e\u0941\u0938\u0932\u092e\u093e\u0928\u094b\u0902": 4645,
  "\u2581Insert": 4646,
  "\u2581\u091a\u093e\u0932\u0942": 4647,
  "\u2581\u092a\u0930\u0938\u094d\u092a\u0930": 4648,
  "do": 4649,
  "\u2581Australia": 4650,
  "\u2581appeared": 4651,
  "\u2581conversation": 4652,
  "\u2581studying": 4653,
  "\u2581\u0907\u0930\u093e\u0926\u093e": 4654,
  "\u2581\u0918\u091f\u0915": 4655,
  "\u2581\u091c\u093f\u0924\u0928\u0940": 4656,
  "\u2581\u092a\u0939\u0941\u0901\u091a\u0928\u0947": 4657,
  "\u2581\u0932\u093e\u092f\u0915": 4658,
  "\u2581\u0938\u092b\u0932\u0924\u093e\u092a\u0942\u0930\u094d\u0935\u0915": 4659,
  "\u2581Mighty": 4660,
  "\u2581\u0909\u092a\u0926\u0947\u0936": 4661,
  "\u2581\u090f\u0932": 4662,
  "\u2581\u0924\u094d\u092f\u093e\u0917": 4663,
  "\u0924\u0941\u092e\u094d\u0939\u093e\u0930\u0947": 4664,
  "\u2581bound": 4665,
  "\u2581km": 4666,
  "\u2581waste": 4667,
  "\u2581\u0905\u0917\u0932\u0940": 4668,
  "\u2581\u092c\u0947\u0939\u0926": 4669,
  "\u2581\u092e\u093e\u092e\u0932\u093e": 4670,
  "ism": 4671,
  "\u2581quite": 4672,
  "\u2581\u091a\u0922\u093c": 4673,
  "\u2581\u091c\u0928\u094b\u0902": 4674,
  "\u2581\u0928\u094d\u092f\u0942\u0928\u0924\u092e": 4675,
  "\u2581commands": 4676,
  "\u2581drawn": 4677,
  "\u2581\u0906\u0928\u0902\u0926": 4678,
  "There": 4679,
  "\u0915\u093c\u093e\u092c\u0942": 4680,
  "\u2581summary": 4681,
  "\u2581\u0938\u0902\u0917\u0924\u093f": 4682,
  "\u2581entry": 4683,
  "\u2581general": 4684,
  "\u2581lying": 4685,
  "\u2581\u0911\u092b\u0932\u093e\u0907\u0928": 4686,
  "\u2581\u0916\u093c\u0941\u0936": 4687,
  "\u2581\u092a\u0940": 4688,
  "\u2581\u092e\u093f\u0932\u0924\u0947": 4689,
  "\u2581\u0936\u093e\u0928\u0926\u093e\u0930": 4690,
  "\u2581recently": 4691,
  "\u2581covered": 4692,
  "\u2581mention": 4693,
  "\u2581\u091a\u0940\u091c\u093c\u0947": 4694,
  "\u2581Subject": 4695,
  "\u2581race": 4696,
  "\u2581XML": 4697,
  "\u2581gonna": 4698,
  "\u2581member": 4699,
  "\u2581specific": 4700,
  "\u2581\u092d\u091f\u0915": 4701,
  "\u2581\u0930\u0939\u093f\u090f": 4702,
  "\u2581desktop": 4703,
  "\u2581vain": 4704,
  "\u091c\u093c\u0915\u093e\u0924": 4705,
  "\u2581Tab": 4706,
  "\u2581literature": 4707,
  "\u2581produced": 4708,
  "\u2581willed": 4709,
  "\u2581\u0938\u092e\u091d\u093e\u092f\u093e": 4710,
  "\u2581neighbor": 4711,
  "\u2581\u0915\u0932\u094d\u092a\u0928\u093e": 4712,
  "\u2581\u0932\u0917\u093e\u0924\u0947": 4713,
  "\u2581talking": 4714,
  "\u2581cases": 4715,
  "\u2581dedication": 4716,
  "\u2581heads": 4717,
  "\u2581import": 4718,
  "\u2581\u0938\u0902\u0917\u0940": 4719,
  "\u0938\u094d": 4720,
  "\u2581Up": 4721,
  "\u2581expressed": 4722,
  "\u2581restored": 4723,
  "\u2581\u091f\u0940": 4724,
  "\u2581Configuration": 4725,
  "\u2581Email": 4726,
  "\u2581Preferences": 4727,
  "\u2581\u0905\u0928": 4728,
  "\u2581\u0915\u0947\u0902\u0926\u094d\u0930": 4729,
  "\u2581dwelling": 4730,
  "\u2581\u0927\u093e\u0930\u094d\u092e\u093f\u0915\u0924\u093e": 4731,
  "\u2581\u092c\u0916\u094d\u0936": 4732,
  "9": 4733,
  "\u2581Believers": 4734,
  "\u2581articles": 4735,
  "\u2581\u0917\u094b\u092f\u093e": 4736,
  "\u2581\u092f\u0941\u0935\u093e": 4737,
  "ur": 4738,
  "\u2581\u0938\u092e\u0930\u094d\u0925": 4739,
  "\u2581map": 4740,
  "\u2581victory": 4741,
  "\u2581\u092c\u093f\u0928\u094d\u0926\u0941": 4742,
  "\u2581\u0935\u093f\u0930\u0942\u0926\u094d\u0927": 4743,
  "\u2581Bad": 4744,
  "\u2581areas": 4745,
  "\u2581greatly": 4746,
  "\u2581hypocrites": 4747,
  "\u2581\u0906\u0928\u0947\u0935\u093e\u0932\u0947": 4748,
  "\u0915\u093c\u0941\u0930\u093e\u0928": 4749,
  "\u2581animal": 4750,
  "\u2581\u091c\u093e\u090f\u0901\u0917\u0940": 4751,
  "\u2581\u0924\u093e\u091c\u093c\u093e": 4752,
  "\u2581\u0924\u0948\u092f\u093e\u0930\u0940": 4753,
  "\u2581\u0926\u0932": 4754,
  "\u2581\u0938\u094b\u091a\u0928\u0947": 4755,
  "\u2581Program": 4756,
  "\u2581corruption": 4757,
  "\u2581\u092a\u094d\u0930\u0915\u093e\u0936\u0928\u093e": 4758,
  "\u2581\u092c\u093e\u0915\u093c\u0940": 4759,
  "\u0917\u093c\u0930\u091c\u093c": 4760,
  "\u2581\u092a\u0941\u0915\u093e\u0930\u093e": 4761,
  "\u2581despite": 4762,
  "\u2581turning": 4763,
  "\u2581wide": 4764,
  "\u2581\u0917\u094d\u0930\u0939\u0923": 4765,
  "\u2581\u091d\u0941\u0920\u0932\u093e": 4766,
  "\u2581\u0939\u0935\u094d\u0935\u093e": 4767,
  "\u2581grieve": 4768,
  "\u2581\u0935\u092b\u093e\u0926\u093e\u0930\u0940": 4769,
  "\u2581affairs": 4770,
  "\u2581existence": 4771,
  "\u2581workers": 4772,
  "\u2581Call": 4773,
  "\u2581drop": 4774,
  "\u2581\u0938\u0924\u094d\u0924\u093e": 4775,
  "wise": 4776,
  "\u2581Musa": 4777,
  "\u2581library": 4778,
  "\u2581social": 4779,
  "\u2581backend": 4780,
  "TP": 4781,
  "\u2581noted": 4782,
  "\u2581\u0906\u092e\u093e\u0932": 4783,
  "\u2581\u0926\u093f\u0916\u093e\u090f": 4784,
  "\u2581\u092c\u0939": 4785,
  "\u2581\u0936\u093f\u0915\u094d\u0937\u093e\u0913\u0902": 4786,
  "\u2581additional": 4787,
  "\u2581\u0938\u0932\u093e\u092e": 4788,
  "\u2581careful": 4789,
  "\u2581joined": 4790,
  "\u2581\u091c\u093c\u092c\u093e\u0928": 4791,
  "\u2581Light": 4792,
  "\u2581Link": 4793,
  "\u2581hosts": 4794,
  "\u2581minister": 4795,
  "\u2581teacher": 4796,
  "\u2581\u0928\u0941\u0915\u0938\u093e\u0928": 4797,
  "\u2581\u0936\u0930\u093e\u092c": 4798,
  "\u2581road": 4799,
  "\u2581\u0907\u092b\u093f\u0938\u093f\u092f\u094b\u0902": 4800,
  "\u2581\u092c\u0917\u0932": 4801,
  "\u2581chat": 4802,
  "\u2581helper": 4803,
  "\u2581leading": 4804,
  "\u2581\u0916\u093f\u0932\u093e\u0921\u093c\u0940": 4805,
  "\u2581\u0938\u0930\u092a\u0930\u0938\u094d\u0924": 4806,
  "\u092e\u093e": 4807,
  "\u25811\"": 4808,
  "\u2581Was": 4809,
  "\u2581hate": 4810,
  "\u2581round": 4811,
  "\u2581\u0908\u092e\u093e\u0928\u0935\u093e\u0932\u0947": 4812,
  "\u2581\u0926\u094c\u0932\u0924": 4813,
  "\u2581\u201c[": 4814,
  "\u2581title": 4815,
  "\u2581whomever": 4816,
  "\u2581\u092a\u0930\u094d\u092f\u093e\u092a\u094d\u0924": 4817,
  "\u2581\u092c\u093e\u0939\u092e": 4818,
  "\u2581\u0968\u0968": 4819,
  "Send": 4820,
  "tar": 4821,
  "\u258121:": 4822,
  "espite": 4823,
  "\u2581faced": 4824,
  "\u2581consequences": 4825,
  "\u2581notice": 4826,
  "\u2581\u0909\u0920": 4827,
  "\u2581\u0909\u0924\u0928\u093e": 4828,
  "\u2581closer": 4829,
  "\u2581mental": 4830,
  "\u2581\u092a\u094d\u0930\u0936\u094d": 4831,
  "\u2581\u0938\u093e\u0925\u093f\u092f\u094b\u0902": 4832,
  "\u0909\u0938\u0915\u0947": 4833,
  "\u2581baby": 4834,
  "\u2581eventually": 4835,
  "\u2581genuine": 4836,
  "\u2581\u0918\u093e\u0924": 4837,
  "\u2581\u091c\u093e\u0901\u091a\u0947\u0902": 4838,
  "\u2581\u0924\u0915\u0932\u0940\u092b": 4839,
  "\u2581\u092d\u0947\u091c\u0940": 4840,
  "\u2581\u092e\u093e\u0928\u0935\u091c\u093e\u0924\u093f": 4841,
  "\u2581\u0932\u094b\u0939\u0942": 4842,
  "\u2581\u0938\u0902\u0926\u0930\u094d\u092d": 4843,
  "\u02b9": 4844,
  "\u2581\u0917\u0941\u0932\u093e\u092e": 4845,
  "\u0928\u0947\u0935\u093e\u0932\u0940": 4846,
  "\u2581abundance": 4847,
  "\u2581input": 4848,
  "\u2581\u0905\u0924\u094d\u092f\u093e\u091a\u093e\u0930\u0940": 4849,
  "\u2581\u091a\u0948\u0928\u0932": 4850,
  "\u2581sovereignty": 4851,
  "\u2581disbelief": 4852,
  "\u2581\u0916\u0930\u093e\u0908": 4853,
  "\u2581putt": 4854,
  "\u2581\u090f\u0938": 4855,
  "\u2581\u0927\u094b\u0916\u093e": 4856,
  "\u2581\u0928\u091c\u093c\u0926\u0940\u0915": 4857,
  "\u2581\u0930\u093e\u091c\u093e\u0913\u0902": 4858,
  "\u2581Apostle": 4859,
  "\u2581Log": 4860,
  "\u2581note": 4861,
  "\u2581\u0906\u0928\u0928\u094d\u0926\u093f\u0924": 4862,
  "\u2581\u092b\u0942\u091f": 4863,
  "lo": 4864,
  "\u2581log": 4865,
  "\u2581major": 4866,
  "\u2581twenty": 4867,
  "\u2581whereas": 4868,
  "\u2581unity": 4869,
  "\u2581\u0905\u092a\u094d\u0930\u0924\u094d\u092f\u093e\u0936\u093f\u0924": 4870,
  "\u2581\u0911\u0928\u0932\u093e\u0907\u0928": 4871,
  "\u2581\u091c\u093e\u0928\u0940": 4872,
  "\u2581\u0938\u0902\u091c\u093e\u0932": 4873,
  "ra": 4874,
  "\u0935\u0939\u0940": 4875,
  "\u2581Header": 4876,
  "\u2581fish": 4877,
  "\u2581\u091c\u093f\u0939\u093e\u0926": 4878,
  "\u2581\u0936\u094d\u0930\u094b\u0924": 4879,
  "\u2581\u0938\u0902\u0915\u091f": 4880,
  "Be": 4881,
  "\u2581Her": 4882,
  "\u2581Way": 4883,
  "\u2581ark": 4884,
  "\u2581\u0905\u0938\u0932\u0940": 4885,
  "\u2581\u0930\u0916\u0924\u0940": 4886,
  "7": 4887,
  "\u258113,": 4888,
  "\u2581importance": 4889,
  "\u2581\u091a\u0940\u0928\u0940": 4890,
  "\u2581\u0921\u0949\u0915\u094d\u091f\u0930": 4891,
  "\u2581\u0935\u094d\u092f\u092d\u093f\u091a\u093e\u0930": 4892,
  "\u2581Almighty": 4893,
  "\u2581submit": 4894,
  "\u2581sufficient": 4895,
  "\u2581\u091c\u093e\u092f\u0947\u0917\u093e": 4896,
  "\u2581\u092c\u0948\u0930": 4897,
  "\u2581\u0935\u0930\u094d\u0924\u0928\u0940": 4898,
  "\u0941\u092c": 4899,
  "\u2581\u090f\u092e": 4900,
  "\u2581\u0930\u0916\u0928\u0947\u0935\u093e\u0932\u094b\u0902": 4901,
  "\u258122.": 4902,
  "\u2581\u0921\u093e\u0932\u0940": 4903,
  "\u2581\u092a\u093e\u0913\u0917\u0947": 4904,
  "\u2581\u092c\u0922\u093c\u0924\u0947": 4905,
  "\u2581\u0938\u093f\u0902\u0939\u093e\u0938\u0928": 4906,
  "\u258190": 4907,
  "\u2581Internet": 4908,
  "\u2581Once": 4909,
  "\u2581lord": 4910,
  "\u2581opposition": 4911,
  "\u2581\u0915\u094d\u0932\u0947\u0936": 4912,
  "\u2581\u25cf": 4913,
  "\u2581offerings": 4914,
  "\u2581presented": 4915,
  "\u2581realized": 4916,
  "\u092f\u093e\u0926": 4917,
  "\u2581\u0926\u093f\u092e\u093e\u0917": 4918,
  "\u2581risk": 4919,
  "\u2581\u0915\u0930\u0942\u0901": 4920,
  "\u2581\u0915\u0941\u0926\u0930\u0924": 4921,
  "View": 4922,
  "\u2581Toolbar": 4923,
  "\u2581foot": 4924,
  "\u2581hatred": 4925,
  "\u2581injustice": 4926,
  "\u2581merciful": 4927,
  "\u2581worshipers": 4928,
  "\u2581worthy": 4929,
  "\u2581beliefs": 4930,
  "\u2581handle": 4931,
  "\u2581\u0913": 4932,
  "\u2581\u0915\u0949\u0928\u094d\u092b\u093c\u093f\u0917\u0930\u0947\u0936\u0928": 4933,
  "\u2581\u0926\u0930\u093f\u092f\u093e": 4934,
  "\u2581\u0926\u094d\u0935\u093e\u0930": 4935,
  "org": 4936,
  "\u093f\u0938": 4937,
  "\u2581Really": 4938,
  "\u2581remembrance": 4939,
  "\u2581\u092e\u0948\u0928\u0947": 4940,
  "\u2581\u0938\u093e\u091d\u093e": 4941,
  "\u2581declare": 4942,
  "\u2581fulfill": 4943,
  "\u2581\u0921\u093e\u091f\u093e\u092c\u0947\u0938": 4944,
  "\u2581\u0938\u0926\u0938\u094d\u092f\u094b\u0902": 4945,
  "\u0906\u0916\u093c\u0947\u0930\u0924": 4946,
  "\u2581\u090f\u0939\u0926": 4947,
  "\u2581\u091c\u093e\u0928\u0915\u0930": 4948,
  "\u2581\u0935\u093e\u0915\u093c\u093f\u092b": 4949,
  "Go": 4950,
  "\u2581disk": 4951,
  "\u2581\u0905\u0930\u0947": 4952,
  "\u2581\u0928\u093e\u0908": 4953,
  "\u2581\u0932\u093e\u090f\u0901": 4954,
  "de": 4955,
  "\u2581basic": 4956,
  "\u2581\u0938\u094d\u0924\u094d\u0930\u093f\u092f\u093e\u0901": 4957,
  "\u0935\u093e\u0938\u092f\u094b\u0917\u094d\u092f": 4958,
  "\u2581click": 4959,
  "\u2581windows": 4960,
  "\u2581\u0932\u093e\u0928\u0924": 4961,
  "\u2581particular": 4962,
  "\u2581\u0926\u0930\u094d\u091c\u093c": 4963,
  "\u2581Peace": 4964,
  "\u2581operations": 4965,
  "\u2581\u0917\u093f\u0930\u093e": 4966,
  "\u2581\u0926\u0942\u0901\u0917\u093e": 4967,
  "\u2581\u0932\u0917\u0924\u0940": 4968,
  "\u2581seemed": 4969,
  "\u2581\u091a\u0948\u091f": 4970,
  "\u2581\u091c\u093e\u0928\u0947\u0935\u093e\u0932\u0947": 4971,
  "\u2581\u0924\u093e\u0930\u0940\u092b": 4972,
  "\u2581\u092c\u091a\u093e\u0928\u0947": 4973,
  "\u258119,": 4974,
  "\u2581concerned": 4975,
  "\u2581touched": 4976,
  "\u2581\u0921\u0947\u091f\u093e": 4977,
  "li": 4978,
  "\u258124.": 4979,
  "\u2581studies": 4980,
  "\u2581\u092e\u093e\u0909\u0938": 4981,
  "\u258136": 4982,
  "\u2581examine": 4983,
  "\u2581loading": 4984,
  "\u2581\u0938\u0902\u0917\u0940\u0924": 4985,
  "\u2581overseer": 4986,
  "\u2581\u091a\u094b\u0930\u0940": 4987,
  "\u2581illustration": 4988,
  "\u2581minds": 4989,
  "\u2581web": 4990,
  "\u2581\u092a\u094d\u0930\u0917\u0924\u093f": 4991,
  "\u2581\u0932\u0939\u0942": 4992,
  "=": 4993,
  "\u258135": 4994,
  "\u2581\u0921\u093e\u0932\u0928\u0947": 4995,
  "\u2581\u0930\u0939\u092e\u093e\u0928": 4996,
  "\",": 4997,
  "6": 4998,
  "\u091f\u0940": 4999,
  "\u2581\u0928\u093f\u0915\u0932\u093e": 5000,
  "\u2581\u092a\u094d\u0930\u092d\u093e\u0935\u093f\u0924": 5001,
  "\u2581Rome": 5002,
  "\u2581Signs": 5003,
  "\u2581\u0915\u0941\u092b\u094d\u0930": 5004,
  "\u2581\u091b\u093e": 5005,
  "\u2581\u092a\u0915\u094d\u0937": 5006,
  "\u2581\u092a\u0941\u0915\u093e\u0930\u0924\u0947": 5007,
  "\u2581pieces": 5008,
  "\u2581render": 5009,
  "\u2581\u0905\u0928\u0928\u094d\u0924": 5010,
  "\u2581\u092e\u0939\u0924\u094d\u0935\u092a\u0942\u0930\u094d\u0923": 5011,
  "\u2581\u0932\u0921\u093c\u0940": 5012,
  "\u2581append": 5013,
  "\u2581cache": 5014,
  "\u2581medical": 5015,
  "\u2581\u092a\u0942\u091b\u0947\u0902": 5016,
  "ro": 5017,
  "\u0930\u094b": 5018,
  "\u2581Certainly": 5019,
  "\u2581urged": 5020,
  "\u2581\u091a\u0928\u094d\u0926": 5021,
  "\u2581\u092a\u093e\u092a\u093e": 5022,
  "\u2581Knower": 5023,
  "\u2581extreme": 5024,
  "\u2581\u0918\u092e\u0902\u0921": 5025,
  "\u2581camp": 5026,
  "\u2581losers": 5027,
  "\u2581river": 5028,
  "\u2581\u0915\u0941": 5029,
  "\u2581\u0917\u092f\u0940\u0902": 5030,
  "\u2581\u0928\u093f\u0915\u093e\u0932\u0947\u0902": 5031,
  "\u2581\u0935\u094d\u092f\u093e\u092a\u093e\u0930": 5032,
  "\u2581\u0938\u092e\u091d\u0947": 5033,
  "\u2581\u0938\u0941\u091d\u093e\u0935": 5034,
  "\u2581Whatever": 5035,
  "\u2581admit": 5036,
  "\u2581games": 5037,
  "\u2581loyalty": 5038,
  "\u2581\u0924\u0902\u0917": 5039,
  "\u2581\u092d\u093e\u0937\u093e\u0913\u0902": 5040,
  "\u2581backs": 5041,
  "\u2581\u0926\u0947\u0935\u0924\u093e\u0913\u0902": 5042,
  "\u2581aid": 5043,
  "\u2581brethren": 5044,
  "\u2581Color": 5045,
  "\u2581bookmarks": 5046,
  "\u2581\u0915\u0948\u0925\u094b\u0932\u093f\u0915": 5047,
  "\u2581\u0928\u093f\u0930\u094d\u0923\u092f": 5048,
  "me": 5049,
  "men": 5050,
  "\u2581Dr": 5051,
  "\u2581carefully": 5052,
  "\u2581\u0907\u0928\u094d\u0938\u093e\u0928": 5053,
  "\u2581\u0930\u093e\u092f": 5054,
  "Save": 5055,
  "\u2581agree": 5056,
  "\u2581limited": 5057,
  "\u2581sustenance": 5058,
  "\u2581thereafter": 5059,
  "\u2581\u092c\u0926\u0915\u093e\u0930": 5060,
  "\u2581Body": 5061,
  "\u2581finished": 5062,
  "\u2581inherit": 5063,
  "\u2581uses": 5064,
  "\u2581\u091b\u092a\u093e\u0908": 5065,
  "\u093f\u092f\u093e\u0902": 5066,
  "\u2581Co": 5067,
  "\u2581direct": 5068,
  "\u2581eternal": 5069,
  "\u2581\u091c\u0921\u093c": 5070,
  "\u2581\u0926\u0941\u0936\u094d\u092e\u0928": 5071,
  "\u2581\u092c\u093f\u0932\u094d\u0921": 5072,
  "\u2581danger": 5073,
  "\u2581principle": 5074,
  "\u2581\u0906\u0901\u0916\u0947\u0902": 5075,
  "\u2581\u092e\u0938\u0940\u0939\u093e": 5076,
  "\u2581authorities": 5077,
  "\u2581bow": 5078,
  "\u2581\u092a\u094d\u0930\u092c\u0902\u0927\u0928": 5079,
  "\u2581\u0935\u093f\u092a\u0924\u094d\u0924\u093f": 5080,
  "te": 5081,
  "ut": 5082,
  "\u2581Chinese": 5083,
  "\u2581eating": 5084,
  "\u2581emotional": 5085,
  "\u2581permissions": 5086,
  "\u0939\u0940": 5087,
  "\u2581double": 5088,
  "\u2581loaded": 5089,
  "\u2581magic": 5090,
  "\u2581\u0905\u0928\u0941\u092e\u093e\u0928": 5091,
  "\u2581\u0935\u093e\u0938\u094d\u0924\u0935\u093f\u0915": 5092,
  "ter": 5093,
  "\u2581leads": 5094,
  "\u2581\u0915\u093e\u092c\u0942": 5095,
  "\u2581\u0915\u094d\u0930\u092e": 5096,
  "\u2581\u092e\u0947\u0928\u094d\u092f\u0942": 5097,
  "\u2581publications": 5098,
  "\u2581\u0905\u092e\u0932": 5099,
  "\u2581\u0906\u091c\u094d\u091e\u093e\u0915\u093e\u0930\u0940": 5100,
  "\u2581\u092c\u0947\u0939\u0924\u0930\u0940\u0928": 5101,
  "\u2581House": 5102,
  "\u2581bones": 5103,
  "\u2581finally": 5104,
  "\u2581prostrate": 5105,
  "\u2581society": 5106,
  "\u2581\u0905\u0902\u091c\u093e\u092e": 5107,
  "\u2581\u092a\u0922\u093c\u0915\u0930": 5108,
  "\u2581\u092a\u0941\u0930\u093e\u0928\u0940": 5109,
  "\u2581\u0938\u0941\u0928\u093f\u0936\u094d\u091a\u093f\u0924": 5110,
  "How": 5111,
  "\u2581Back": 5112,
  "\u2581developed": 5113,
  "\u2581late": 5114,
  "\u2581sex": 5115,
  "\u2581teachers": 5116,
  "\u2581arrangement": 5117,
  "\u2581compassion": 5118,
  "Moses": 5119,
  "\u25811'": 5120,
  "\u2581commandment": 5121,
  "so": 5122,
  "\u2581ruin": 5123,
  "\u2581weeks": 5124,
  "\u2581yes": 5125,
  "\u2581\u0930\u094b\u0917": 5126,
  "\u258116:": 5127,
  "\u2581beside": 5128,
  "\u2581\u092c\u0940\u091c": 5129,
  "\u2581\u0930\u0916\u0928\u0947\u0935\u093e\u0932\u0947": 5130,
  "\u2581\u0938\u093e\u092e\u0930\u094d\u0925": 5131,
  "\u2581\u0938\u0940\u0927\u0940": 5132,
  "\u2581\u0939\u091c\u093c\u093e\u0930\u094b\u0902": 5133,
  "\u2581\u0930\u0935\u0948\u092f\u093e": 5134,
  "X": 5135,
  "\u2581reasonable": 5136,
  "\u2581\u0938\u0902\u0938\u093e\u0927\u0928": 5137,
  "\u093f\u0928": 5138,
  "\u25811.": 5139,
  "\u2581cultivate": 5140,
  "\u2581lock": 5141,
  "\u2581thereby": 5142,
  "\u2581\u0915\u094d\u0937\u0948\u0924\u093f\u091c": 5143,
  "\u2581\u0935\u093e\u0926": 5144,
  "\u2581St": 5145,
  "\u2581deaf": 5146,
  "\u2581stayed": 5147,
  "\u2581\u092a\u093e\u092c\u0928\u094d\u0926": 5148,
  "\u2581easily": 5149,
  "\u2581marked": 5150,
  "\u2581parable": 5151,
  "\u2581strike": 5152,
  "\u2581\u092e\u0928\u094d\u0926\u093f\u0930": 5153,
  "\u2581\u0935\u093f\u091a\u093e\u0930\u094b\u0902": 5154,
  "\u2581\u0938\u094d\u0935\u0930\u094d\u0917\u0926\u0942\u0924\u094b\u0902": 5155,
  "Z": 5156,
  "\u0928\u0939\u0940\u0902": 5157,
  "\u2581cell": 5158,
  "\u2581probably": 5159,
  "ful": 5160,
  "\u2581Truly": 5161,
  "\u2581bringing": 5162,
  "\u2581endurance": 5163,
  "\u2581merely": 5164,
  "\u2581\u091a\u0941\u0928\u094c\u0924\u0940": 5165,
  "\u2581\u0926\u0942\u0930\u0940": 5166,
  "ISO": 5167,
  "\u2581Always": 5168,
  "\u2581fair": 5169,
  "\u2581saving": 5170,
  "\u2581\u092e\u093e\u0902\u0938": 5171,
  "\u2581fighting": 5172,
  "\u2581included": 5173,
  "\u2581music": 5174,
  "\u2581\u0914\u0930\u0924\u0947\u0902": 5175,
  "\u2581\u092d\u091c\u0928\u0939\u093e\u0930": 5176,
  "\u092f\u0915": 5177,
  "\u2581Church": 5178,
  "\u2581bless": 5179,
  "\u2581dispute": 5180,
  "\u2581evident": 5181,
  "\u2581purposes": 5182,
  "\u2581rename": 5183,
  "\u2581Previous": 5184,
  "\u2581conceal": 5185,
  "\u2581crime": 5186,
  "\u2581unclean": 5187,
  "\u2581\u092f\u0915\u093c\u0940\u0928": 5188,
  "\u2581\u0938\u0939\u0947\u091c\u093e": 5189,
  "\u2581Try": 5190,
  "\u2581gifts": 5191,
  "\u2581kinds": 5192,
  "\u2581ship": 5193,
  "\u2581unique": 5194,
  "\u2581\u0928\u0947\u091f\u0935\u0930\u094d\u0915": 5195,
  "\u2581\u092a\u0942": 5196,
  "\u2581\u092b\u094b\u091f\u094b": 5197,
  "\u2581\u0935\u093f\u0915\u0938\u093f\u0924": 5198,
  "\u2581\u0928\u093f\u0915\u093e\u0932\u0947": 5199,
  "\u2581\u092e\u0939\u093e": 5200,
  "\u2581\u0939\u093e\u092f": 5201,
  "\u2581divided": 5202,
  "\u2581\u0906\u091c\u093c\u093e\u0926\u0940": 5203,
  "\u2581\u0906\u0935\u0936\u094d": 5204,
  "\u2581\u092a\u0928\u093e\u0939": 5205,
  "\u2581\u092a\u0941\u0937\u094d\u091f\u093f": 5206,
  "\u2581\u092c\u093e\u0926\u0932": 5207,
  "\u2581\u0932\u093f\u0916\u0928\u093e": 5208,
  "\u2581Left": 5209,
  "\u2581ear": 5210,
  "\u2581letters": 5211,
  "\u2581pursue": 5212,
  "\u2581\u092b": 5213,
  "\u2581appears": 5214,
  "\u2581expected": 5215,
  "\u2581online": 5216,
  "\u2581\u0905\u0935\u0938\u094d\u0925\u093e": 5217,
  "\u2581\u0909\u092a\u093e\u0938\u0915": 5218,
  "\u2581\u092f\u0942\u0906\u0930\u090f\u0932": 5219,
  "\u2581burned": 5220,
  "\u2581environment": 5221,
  "\u2581negative": 5222,
  "\u2581\u0915\u093f\u0924\u093e\u092c\u0947\u0902": 5223,
  "\u2581\u0926\u0947\u0916\u0940": 5224,
  "\u2581\u092b\u094d\u0930\u0947\u092e": 5225,
  "\u2581\u092c\u0940": 5226,
  "\u2581\u0938\u094d\u0935\u093e\u0938\u094d\u0925\u094d\u092f": 5227,
  "\u2581\u0939\u0932\u093e\u0932": 5228,
  "\u0928\u093f\u0915\u093e\u0939": 5229,
  "\u2581Author": 5230,
  "\u2581count": 5231,
  "\u2581dream": 5232,
  "\u2581harvest": 5233,
  "\u2581press": 5234,
  "\u0924\u0938\u092c\u0940\u0939": 5235,
  "\u0935\u093f\u0936\u094d": 5236,
  "\u2581Export": 5237,
  "\u2581Ezekiel": 5238,
  "\u2581beneath": 5239,
  "\u2581keys": 5240,
  "\u2581\u092e\u0930\u094d\u0926": 5241,
  "\u2581involves": 5242,
  "\u2581preached": 5243,
  "\u2581seconds": 5244,
  "\u2581\u092b\u0930\u094d\u0915": 5245,
  "\u2581lessons": 5246,
  "\u2581notification": 5247,
  "\u2581\u091a\u0947\u0939\u0930\u0947": 5248,
  "\u2581\u092a\u0939\u0932\u0942": 5249,
  "\u2581\u092a\u093e\u0924\u093e": 5250,
  "\u2581\u092c\u0938\u094d\u0924\u093f\u092f\u094b\u0902": 5251,
  "\u2581\u092c\u0947\u0925\u0947\u0932": 5252,
  "\u2581Zoom": 5253,
  "\u258119:": 5254,
  "\u2581NW": 5255,
  "\u2581acceptable": 5256,
  "\u2581association": 5257,
  "\u2581site": 5258,
  "\u2581\u0906\u0924\u094d\u092e": 5259,
  "\u2581\u0921\u093e\u0932\u0924\u0947": 5260,
  "am": 5261,
  "\u094d\u0921": 5262,
  "\u2581Pharisees": 5263,
  "\u2581decide": 5264,
  "their": 5265,
  "\u2581European": 5266,
  "\u2581ruler": 5267,
  "\u2581Level": 5268,
  "\u2581characters": 5269,
  "\u2581price": 5270,
  "\u2581\u0916\u0947\u0924\u0940": 5271,
  "\u2581\u092d\u0947\u091c\u0928\u093e": 5272,
  "\u092e\u093e\u0928": 5273,
  "\u2581Allow": 5274,
  "\u2581Junk": 5275,
  "\u2581understood": 5276,
  "\u2581\u0930\u094b\u092e\u0940": 5277,
  "\u2581\u0938\u092e\u091d\u0928\u093e": 5278,
  "\u2581\u0938\u093e\u0939\u093f\u0924\u094d\u092f": 5279,
  "\u258145": 5280,
  "\u2581recite": 5281,
  "\u2581\u0905\u0915\u094d\u0937\u0930\u094b\u0902": 5282,
  "\u2581\u0930\u094b\u0915\u093e": 5283,
  "ry": 5284,
  "\u2581firmly": 5285,
  "\u2581\u0928\u093f\u0915\u0932\u0928\u0947": 5286,
  "\u2581School": 5287,
  "\u2581adds": 5288,
  "\u2581edit": 5289,
  "\u2581\u0909\u092a": 5290,
  "\u2581\u0921\u0930\u093e": 5291,
  "\u2581\u0926\u0943\u0937\u094d\u091f\u093f\u0915\u094b\u0923": 5292,
  "\u2581\u0938\u094d\u092e\u093e\u0930\u0915": 5293,
  "\u2581\u0939\u094b\u0917\u0947": 5294,
  "\u2581violent": 5295,
  "\u2581\u091c\u093f\u0928\u094d\u0928": 5296,
  ")!": 5297,
  "ous": 5298,
  "\u093f\u090f": 5299,
  "\u2581imagine": 5300,
  "\u2581warm": 5301,
  "Indeed": 5302,
  "\u258123:": 5303,
  "\u2581mark": 5304,
  "\u2581relief": 5305,
  "\u2581\u0906\u091c\u093c\u093e\u0926": 5306,
  "\u2581\u092e\u094c\u0915\u0947": 5307,
  "\u2581extent": 5308,
  "\u2581tool": 5309,
  "\u2581usage": 5310,
  "\u2581\u0930\u093e\u0939\u0947": 5311,
  "\u2581Hey": 5312,
  "\u2581headers": 5313,
  "\u2581occur": 5314,
  "\u2581\u092e\u093e\u0928\u0940": 5315,
  "\u2581\u092f\u093e\u0924\u094d\u0930\u093e": 5316,
  "\u2581\u0939\u094b\u0928\u0947\u0935\u093e\u0932\u0940": 5317,
  "\u2581=": 5318,
  "\u2581character": 5319,
  "\u2581worse": 5320,
  "\u2581\u092a\u0925\u092d\u094d\u0930\u0937\u094d\u091f": 5321,
  "\u2581\u092c\u0928\u094b": 5322,
  "\u2581properly": 5323,
  "\u2581statement": 5324,
  "\u2581treatment": 5325,
  "\u2581\u092a\u094d\u0930\u0936\u0902\u0938\u093e": 5326,
  "\u2581\u092c\u0930\u0938\u093e\u0924": 5327,
  "\u2581\u0932\u093e\u0907\u0938\u0947\u0902\u0938": 5328,
  "\u2581Authentication": 5329,
  "\u2581assembly": 5330,
  "\u2581total": 5331,
  "\u2581\u091a\u0932\u0947\u0902": 5332,
  "\u2581buy": 5333,
  "\u2581effective": 5334,
  "\u2581husbands": 5335,
  "\u2581missing": 5336,
  "\u2581revelation": 5337,
  "\u2581shepherd": 5338,
  "\u2581wickedness": 5339,
  "\u2581\u092e\u0928\u094b\u0930\u0902\u091c\u0928": 5340,
  "\u2581\u0932\u0902\u092c\u0947": 5341,
  "\u0926\u093e\u0926\u093e": 5342,
  "\u2581armies": 5343,
  "\u2581\u0926\u0943\u0937\u094d\u091f\u093e\u0902\u0924": 5344,
  "\u2581mere": 5345,
  "\u2581shared": 5346,
  "\u2581\u092c\u0921\u093c\u093e\u0908": 5347,
  "\u2581\u092e\u0930\u0915\u0941\u0938": 5348,
  "\u0917\u093e": 5349,
  "\u2581Philippians": 5350,
  "\u2581memory": 5351,
  "\u2581\u092c\u0947\u0915\u093e\u0930": 5352,
  "\u2581Auto": 5353,
  "\u2581personally": 5354,
  "\u2581\u092a\u094d\u0930\u091a\u093e\u0930\u0915": 5355,
  "\u2581\u0935\u093f\u0926\u094d\u092f\u093e\u0930\u094d\u0925\u0940": 5356,
  "\u2581folk": 5357,
  "\u2581likewise": 5358,
  "\u2581welcome": 5359,
  "\u2581\u0905\u0915\u094d\u0937": 5360,
  "\u2581\u0938\u094d\u0924\u092e\u094d\u092d": 5361,
  "\u091a\u092f": 5362,
  "\u2581Empathy": 5363,
  "\u2581Muslims": 5364,
  "\u2581match": 5365,
  "\u2581telling": 5366,
  "\u2581\u0916\u0947\u0924": 5367,
  "\u2581\u0938\u093e\u0907\u091f": 5368,
  "\u2581meal": 5369,
  "\u2581song": 5370,
  "\u2581\u0909\u0920\u0947": 5371,
  "\u2581\u0918\u0921\u093c": 5372,
  "\u2581\u092a\u0939\u0941\u0901\u091a\u0940": 5373,
  "\u2581\u092a\u094d\u0930\u0924\u093f\u0932\u093f\u092a\u093f": 5374,
  "\u2581\u0935\u093f\u0938\u094d\u0924\u0943\u0924": 5375,
  "\u2581\u0938\u094d\u0924\u0930\u094b\u0902": 5376,
  "\u2581publishers": 5377,
  "\u2581\u0915\u093c\u093e\u0926\u093f\u0930": 5378,
  "\u2581\u0928\u094b\u091f": 5379,
  "\u2581Clearly": 5380,
  "\u2581north": 5381,
  "\u2581sharing": 5382,
  "\u2581truths": 5383,
  "\u2581\u0915\u093e\u0932\u093e": 5384,
  "\u2581\u092a\u0949\u092a\u0905\u092a": 5385,
  "ce": 5386,
  "os": 5387,
  "\u2581bed": 5388,
  "\u2581beloved": 5389,
  "\u2581searching": 5390,
  "\u2581\u092c\u0941\u091c\u093c\u0941\u0930\u094d\u0917": 5391,
  "\u2581\u092c\u0948\u0920": 5392,
  "\u2581\u092f\u093e\u091c\u0915\u094b\u0902": 5393,
  "\u0939\u094b": 5394,
  "\u2581Nor": 5395,
  "\u2581exalted": 5396,
  "\u2581suddenly": 5397,
  "\u2581\u0928\u0940\u0902\u0926": 5398,
  "\u2581\u092b\u0902\u0915\u094d\u0936\u0928": 5399,
  "na": 5400,
  "\u0901": 5401,
  "\u0905\u0917\u0930": 5402,
  "\u2581channel": 5403,
  "\u2581listening": 5404,
  "\u2581\u0905\u0928\u094d\u0924\u093f\u092e": 5405,
  "\u2581\u0926\u093f\u0916\u093e\u0924\u0940": 5406,
  "\u2581\u0935\u093f\u0928\u094d\u092f": 5407,
  "\u2581\u092b\u093f\u0930\u094c\u0928": 5408,
  "\u2581\u092e\u093f\u091f": 5409,
  "\u2581\u0938\u0902\u0930\u0915\u094d\u0937\u0915": 5410,
  "\u2581\"%1\"": 5411,
  "\u2581conclusion": 5412,
  "\u2581formed": 5413,
  "\u2581goals": 5414,
  "\u2581throw": 5415,
  "\u2581\u0927\u0942\u092a": 5416,
  "\u2581\u0938\u093e\u0930\u094d\u0935\u091c\u0928\u093f\u0915": 5417,
  "ance": 5418,
  "\u2581Germany": 5419,
  "\u2581\u092e\u093e\u092b\u0940": 5420,
  "\u2581\u0938\u094d\u091f\u094b\u0930": 5421,
  "\u2581Copying": 5422,
  "\u2581Position": 5423,
  "\u2581companion": 5424,
  "\u2581terms": 5425,
  "\u2581across": 5426,
  "\u2581continues": 5427,
  "\u2581improve": 5428,
  "\u2581rules": 5429,
  "\u2581Sea": 5430,
  "\u2581\u0926\u0947\u0916\u094b\u0917\u0947": 5431,
  "\u2581\u0935\u093f\u0936\u094d\u0930\u093e\u092e": 5432,
  "\u2581grew": 5433,
  "\u2581\u0938\u093e\u091d\u0940": 5434,
  "\u0935\u094d\u092f\u0938\u094d\u0924": 5435,
  "\u258120:": 5436,
  "\u2581Being": 5437,
  "\u2581border": 5438,
  "\u2581\u0921\u0947\u0932\u093f\u0917\u0947\u091f": 5439,
  "\u2581\u092a\u0924\u094d\u0928\u093f\u092f\u094b\u0902": 5440,
  "8": 5441,
  "\u2581Levites": 5442,
  "\u2581decree": 5443,
  "\u2581\u092a\u0921\u093c\u094b\u0938\u0940": 5444,
  "\u2581\u092a\u0948\u0926\u0932": 5445,
  "File": 5446,
  "\u258117,": 5447,
  "\u2581\u0905\u0928\u093f\u0935\u093e\u0930\u094d\u092f": 5448,
  "\u2581\u090a\u0902\u091a\u0947": 5449,
  "\u2581\u0924\u092c\u093e\u0939\u0940": 5450,
  "\u2581\u0928\u093f\u0935\u0947\u0926\u0928": 5451,
  "\u2581%1.": 5452,
  "\u2581port": 5453,
  "\u2581\u0915\u092e\u093e\u0908": 5454,
  "\u2581\u0921\u0930\u0924\u093e": 5455,
  "\u2581\u092a\u0941\u0932\u093f\u0938": 5456,
  "\u2581\u092e\u093e\u0924\u094d\u0930\u093e": 5457,
  "\u2581leaves": 5458,
  "\u2581sounds": 5459,
  "\u2581viewed": 5460,
  "\u2581\u0909\u0924\u093e\u0930\u0940": 5461,
  "\u2581\u092e\u092e\u094d\u092e\u0940": 5462,
  "Show": 5463,
  "\u2581'%1": 5464,
  "\u2581Noble": 5465,
  "\u2581appearance": 5466,
  "\u2581arguments": 5467,
  "\u2581pattern": 5468,
  "\u2581\u092c\u0930\u0928": 5469,
  "\u2581\u092e\u093e": 5470,
  "\u0938\u094d\u091f": 5471,
  "\u2581Comment": 5472,
  "\u2581Gospel": 5473,
  "\u2581invitation": 5474,
  "\u2581lasting": 5475,
  "\u2581\u092e\u0941\u0915\u094d\u0924": 5476,
  "\u2581\u0936\u0930\u0923": 5477,
  "\u094d\u0939\u0940\u0902": 5478,
  "\u2581allows": 5479,
  "\u2581friendship": 5480,
  "\u2581jinn": 5481,
  "\u2581receiving": 5482,
  "\u2581\u0906\u0935\u0936\u094d\u092f\u0915\u0924\u093e": 5483,
  "\u2581\u0935\u093f\u092a\u0930\u0940\u0924": 5484,
  "\u2581\u0938\u0939\u093e\u0930\u093e": 5485,
  "\u2581Service": 5486,
  "\u2581Update": 5487,
  "\u2581bearing": 5488,
  "\u2581includes": 5489,
  "\u2581\u0916\u092c\u0930": 5490,
  "\u2581\u0917\u093c\u0932\u0924": 5491,
  "\u2581\u092c\u0922\u093c\u0924\u093e": 5492,
  "\u2581experiences": 5493,
  "\u2581flag": 5494,
  "\u2581multitude": 5495,
  "\u2581police": 5496,
  "\u2581\u091a\u092e\u0924\u094d\u0915\u093e\u0930": 5497,
  "\u2581\u0921\u094d\u0930\u093e\u0907\u0935": 5498,
  "\u2581\u0938\u0902\u0926\u0947\u0939": 5499,
  "\u0909\u0938\u0915\u0940": 5500,
  "\u2581Indian": 5501,
  "\u2581faithless": 5502,
  "\u2581practices": 5503,
  "\u2581tears": 5504,
  "\u2581views": 5505,
  "\u2581\u0915\u093e\u092e\u092f\u093e\u092c\u0940": 5506,
  "\u2581\u0928\u0948\u0924\u093f\u0915": 5507,
  "\u2581Any": 5508,
  "\u2581\u0905\u0924\u093f\u0930\u093f\u0915\u094d": 5509,
  "\u2581\u092c\u094d\u0930\u093e\u0909\u091c\u093c\u0930": 5510,
  "ish": 5511,
  "knowing": 5512,
  "\u2581Changes": 5513,
  "\u2581foreign": 5514,
  "\u2581growth": 5515,
  "\u2581reign": 5516,
  "\u2581strengthened": 5517,
  "\u2581\u0917\u092a\u0936\u092a": 5518,
  "\u2581\u0924\u0924\u094d\u0935": 5519,
  "\u2581\u0926\u0942\u0924": 5520,
  "\u2581\u0932\u0948\u0902\u0917\u093f\u0915": 5521,
  "\u2581effects": 5522,
  "\u2581\u092c\u0928\u093e\u0913": 5523,
  "\u2581\u0938\u0902\u0915\u0947\u0924\u0915": 5524,
  "\u092c\u093e": 5525,
  "\u0939\u092e\u093e\u0930\u0940": 5526,
  "\u2581assist": 5527,
  "\u2581\u0913\u0939": 5528,
  "\u2581\u091c\u0917\u0939\u094b\u0902": 5529,
  "\u092f\u0915\u0924\u093e": 5530,
  "\u2581Welcome": 5531,
  "\u2581\u0916\u0924\u0930\u093e": 5532,
  "\u2581Windows": 5533,
  "\u2581block": 5534,
  "\u2581hasten": 5535,
  "\u2581\u091a\u093e\u0932\u091a\u0932\u0928": 5536,
  "\u2581\u091c\u0940\u0935": 5537,
  "\u2581\u0926\u093e\u0939\u093f\u0928\u0947": 5538,
  "\u2581\u0932\u0921\u093c\u0928\u0947": 5539,
  "\u25ab": 5540,
  "but": 5541,
  "\u092b\u0930\u093f\u0936\u094d\u0924\u0947": 5542,
  "\u2581iron": 5543,
  "\u2581objects": 5544,
  "\u2581\u0918\u0947\u0930": 5545,
  "\u2581\u0935\u093f\u0935\u0947\u0915": 5546,
  "\u2581global": 5547,
  "\u2581instruction": 5548,
  "\u2581\u0915\u0939\u093e\u0902": 5549,
  "\u2581\u091b\u093e\u092f\u093e": 5550,
  "\u2581\u0905\u0927\u093f\u0915\u093e\u0902\u0936": 5551,
  "\u2581\u0921\u093f\u0930\u0947\u0915\u094d\u091f\u094d\u0930\u0940": 5552,
  "\u2581\u092e\u094b\u0932": 5553,
  "\u090f\u0932": 5554,
  "\u091c\u0940": 5555,
  "\u2581i": 5556,
  "only": 5557,
  "\u2581Directory": 5558,
  "\u2581fallen": 5559,
  "\u2581legal": 5560,
  "\u2581needy": 5561,
  "\u2581pioneers": 5562,
  "\u2581\u092a\u093f\u0924\u093e\u091c\u0940": 5563,
  "\u2581\u092c\u093e\u0930\u0939": 5564,
  "\u0909\u0928\u0915\u0940": 5565,
  "\u092a\u0942\u0930\u094d\u0923": 5566,
  "\u2581Preview": 5567,
  "\u2581convinced": 5568,
  "\u2581\u0905\u0930\u092c\u0940": 5569,
  "\u2581\u092a\u0932": 5570,
  "\u2581bottom": 5571,
  "\u2581database": 5572,
  "\u2581higher": 5573,
  "\u2581remains": 5574,
  "\u2581\u0905\u0932\u092c\u0924\u094d\u0924\u093e": 5575,
  "\u2581\u0906\u090f\u0917\u0940": 5576,
  "\u0947\u0917\u093e": 5577,
  "\u2581correctly": 5578,
  "\u2581dialogue": 5579,
  "\u2581rock": 5580,
  "\u2581\u0915\u0928\u0947\u0915\u094d\u091f": 5581,
  "\u2581\u0915\u093f\u0932\u094b\u092e\u0940\u091f\u0930": 5582,
  "\u2581\u0924\u0928\u093e\u0935": 5583,
  "\u2581\u0928\u093f\u0930\u094d\u092d\u0930": 5584,
  "\u0915\u093f\u0938\u0940": 5585,
  "\u2581disciple": 5586,
  "\u2581fixed": 5587,
  "\u2581follows": 5588,
  "\u2581forgiving": 5589,
  "\u2581speaks": 5590,
  "\u2581\u092a\u094d\u0930\u093e\u0925\u092e\u093f\u0915\u0924\u093e": 5591,
  "\u2581\u092c\u091a\u0928\u0947": 5592,
  "q": 5593,
  "\u0925": 5594,
  "\u2581Best": 5595,
  "\u2581missionaries": 5596,
  "\u2581surface": 5597,
  "\u2581\u0906\u091c\u094d\u091e\u093e\u0913\u0902": 5598,
  "\u2581\u091c\u0930\u094d\u092e\u0928\u0940": 5599,
  "\u2581\u0930\u0939\u0915\u0930": 5600,
  "\u2581mailing": 5601,
  "\u2581\u0918\u0943\u0923\u093e": 5602,
  "\u2581\u092c\u0924\u093e\u0924\u0947": 5603,
  "\u2581\u0939\u093e\u0925\u0940": 5604,
  "ING": 5605,
  "et": 5606,
  "line": 5607,
  "name": 5608,
  "\u2581Family": 5609,
  "\u2581mothers": 5610,
  "\u2581red": 5611,
  "\u2581\u092e\u093e\u0928\u0924\u093e": 5612,
  "\u2581\u0930\u0939\u092e": 5613,
  "\u2581\u0938\u094d\u092a\u0942\u0932": 5614,
  "\u2581Local": 5615,
  "\u2581divorce": 5616,
  "\u2581\u0926\u0923\u094d\u0921": 5617,
  "\u2581\u092c\u0940\u0935\u093f\u092f": 5618,
  "\u0932\u0940\u0938": 5619,
  "\u2581expects": 5620,
  "\u2581lines": 5621,
  "For": 5622,
  "\u258137": 5623,
  "\u2581attended": 5624,
  "\u2581sat": 5625,
  "\u2581testimony": 5626,
  "\u2581\u0907\u0928\u0938\u0947": 5627,
  "\u2581\u092a\u0924\u0947": 5628,
  "\u092a\u093e\u0915\u0940\u091c\u093c\u093e": 5629,
  "\u2581affected": 5630,
  "\u2581east": 5631,
  "\u2581grief": 5632,
  "\u2581pleases": 5633,
  "\u2581remaining": 5634,
  "\u2581\u0905\u0915\u094d\u0938\u0930": 5635,
  "\u2581\u0938\u092e\u0942\u0926": 5636,
  "\u2581Ye": 5637,
  "\u2581Young": 5638,
  "\u2581execute": 5639,
  "\u2581parse": 5640,
  "\u2581universe": 5641,
  "\u2581worth": 5642,
  "\u2581\u0926\u0947\u0939": 5643,
  "\u2581\u0939\u092b\u094d\u0924\u0947": 5644,
  "\u092e\u0947\u0932": 5645,
  "\u2581Draw": 5646,
  "\u2581GroupWise": 5647,
  "\u2581behavior": 5648,
  "\u2581label": 5649,
  "\u2581valuable": 5650,
  "\u2581\u091a\u093f\u0928\u094d\u0924\u093e": 5651,
  "\u2581\u0924\u0940\u0930": 5652,
  "\u258125.": 5653,
  "\u2581junk": 5654,
  "\u2581moment": 5655,
  "\u2581\u091c\u093e\u0926\u0942\u0917\u0930": 5656,
  "\u2581\u0926\u0947\u0917\u0940": 5657,
  "\u2581advantage": 5658,
  "\u2581leaving": 5659,
  "\u2581tribes": 5660,
  "\u2581\u0906\u0926": 5661,
  "\u2581\u0907\u0928\u093e\u092e": 5662,
  "\u2581\u0909\u092a\u092d\u094b\u0915\u094d\u0924\u093e": 5663,
  "\u2581\u0939\u0925\u093f\u092f\u093e\u0930": 5664,
  "\u2581France": 5665,
  "\u2581Its": 5666,
  "\u2581clouds": 5667,
  "\u2581fearing": 5668,
  "\u2581perish": 5669,
  "\u2581\u0905\u0928\u091c\u093e\u0928": 5670,
  "\u2581\u092a\u093e\u0926\u0930\u0940": 5671,
  "\u2581\u092a\u093e\u0930\u093f\u0935\u093e\u0930\u093f\u0915": 5672,
  "\u2581\u092e\u093e\u0939\u094c\u0932": 5673,
  "\u090f\u0938": 5674,
  "\u2581discuss": 5675,
  "\u2581flee": 5676,
  "\u2581fought": 5677,
  "\u2581immorality": 5678,
  "\u2581\u0938\u0915\u0947\u0917\u093e": 5679,
  "\u2581t": 5680,
  "\u2581\u092d\u092f\u093e\u0928\u0915": 5681,
  "\u2581\u092d\u093e\u0930\u0924": 5682,
  "Copy": 5683,
  "\u092a\u094d\u0930\u0924\u093f\u0926\u093e\u0928": 5684,
  "\u2581Background": 5685,
  "\u2581Global": 5686,
  "\u2581PAGE": 5687,
  "\u2581remnant": 5688,
  "\u2581tabernacle": 5689,
  "\u2581village": 5690,
  "\u2581\u0905\u092a\u0930\u093e\u0927\u0940": 5691,
  "\u2581\u0906\u0926\u0930\u094d\u0936": 5692,
  "\u2581\u090a\u0901\u091a\u0947": 5693,
  "\u2581\u0915\u093e\u0930\u094d\u092f\u093e\u0932\u092f": 5694,
  "\u2581bodies": 5695,
  "\u2581clay": 5696,
  "\u2581succeed": 5697,
  "\u2581\u0918\u094b\u0937\u0923\u093e": 5698,
  "\u2581\u091a\u094b\u091f": 5699,
  "\u2581\u0926\u0941": 5700,
  "\u258180": 5701,
  "\u2581notes": 5702,
  "\u2581\u0909\u0932\u091f": 5703,
  "\u2581\u0915\u0948\u092e\u0930\u093e": 5704,
  "\u2581Meeting": 5705,
  "\u2581gates": 5706,
  "\u2581limits": 5707,
  "\u2581listed": 5708,
  "\u2581obtain": 5709,
  "\u2581paid": 5710,
  "\u2581indicated": 5711,
  "\u2581\u0907\u0928\u092a\u0941\u091f": 5712,
  "\u2581\u0924\u093e\u0932\u0940\u092e": 5713,
  "\u2581\u092a\u094d\u0930\u092f\u094b\u0915\u094d\u0924\u093e": 5714,
  "\u2581\u0968\u096b": 5715,
  "\u2581Reply": 5716,
  "\u2581failure": 5717,
  "\u2581wilt": 5718,
  "\u2581\u0939\u094b\u0938\u094d\u091f": 5719,
  "\u2581Christianity": 5720,
  "\u2581charge": 5721,
  "\u2581poverty": 5722,
  "\u2581travel": 5723,
  "\u2581\u0917\u093e\u0901\u0935": 5724,
  "\u2581\u092c\u094b\u0932\u0940": 5725,
  "ant": 5726,
  "\u093c\u0924": 5727,
  "\u2581cancelled": 5728,
  "\u2581cloud": 5729,
  "\u2581discreet": 5730,
  "\u2581inform": 5731,
  "\u2581steadfast": 5732,
  "\u2581treasure": 5733,
  "\u2581\u0905\u0902\u0936": 5734,
  "\u2581\u091c\u094b\u0921\u093c\u0928\u093e": 5735,
  "\u2581\u0926\u094b\u091c\u093c\u0916\u093c": 5736,
  "\u0905\u092a\u0928\u093e": 5737,
  "\u258122:": 5738,
  "\u2581Without": 5739,
  "\u2581balance": 5740,
  "\u2581situations": 5741,
  "\u2581unseen": 5742,
  "\u2581\u0938\u092e\u0941\u0926\u093e\u092f": 5743,
  "\u2581\u2019?": 5744,
  "\u2581Under": 5745,
  "\u2581\u0935\u093f\u0930\u094b\u0927\u0940": 5746,
  "\u2581\u0938\u0942\u0930\u091c": 5747,
  "\u2581Specify": 5748,
  "\u2581overseers": 5749,
  "\u2581valley": 5750,
  "format": 5751,
  "\u2581otherwise": 5752,
  "\u2581translation": 5753,
  "\u2581\u0905\u092b\u0938\u094b\u0938": 5754,
  "\u0939\u093e\u0901": 5755,
  "\u2581accomplish": 5756,
  "\u2581cope": 5757,
  "\u2581determine": 5758,
  "\u2581knoweth": 5759,
  "\u2581\u0906\u0916\u093f\u0930\u0915\u093e\u0930": 5760,
  "\u2581\u091c\u0928\u094d\u092e\u0926\u093f\u0928": 5761,
  "\u2581\u092b\u0932\u0915": 5762,
  "\u2581II": 5763,
  "\u2581Woe": 5764,
  "\u2581glorify": 5765,
  "\u2581hair": 5766,
  "\u2581\u091d\u0917\u0921\u093c\u0947": 5767,
  "\u2581\u0928\u094c": 5768,
  "\u2581\u0939\u093f\u0902\u0938\u093e": 5769,
  "text": 5770,
  "\u2581comments": 5771,
  "\u2581containing": 5772,
  "\u2581naught": 5773,
  "\u2581symbolic": 5774,
  "\u2581\u0924\u093e\u091c\u094d\u091c": 5775,
  "\u2581American": 5776,
  "\u2581grain": 5777,
  "\u2581rightly": 5778,
  "per": 5779,
  "\u2581System": 5780,
  "\u2581corrupt": 5781,
  "\u2581thankful": 5782,
  "\u2581\u091a\u093f\u0939\u094d\u0928": 5783,
  "\u2581dangerous": 5784,
  "\u2581reality": 5785,
  "\u2581\u0906\u0926\u0924": 5786,
  "\u2581\u092b\u094d\u0932\u0948\u0917\u094d\u0938": 5787,
  "\u2581\u0938\u093e\u0926\u093e": 5788,
  "\u2581\u0939\u094b\u0928\u0947\u0935\u093e\u0932\u0947": 5789,
  "\u2581\u266a": 5790,
  "\u0935\u0940": 5791,
  "\u2581Connection": 5792,
  "\u2581abuse": 5793,
  "\u2581addresses": 5794,
  "\u2581\u0905\u0902\u0924\u0930\u094d\u0935\u0938\u094d\u0924\u0941": 5795,
  "\u2581\u0917\u0928\u094b\u092e": 5796,
  "\u2581\u091c\u093c\u0942\u092e": 5797,
  "\u2581\u091f\u0930\u094d\u092e\u093f\u0928\u0932": 5798,
  "\u2581\u092b\u093c": 5799,
  "\u2581\u092c\u0922\u093c\u0928\u0947": 5800,
  "\u2581\u092e\u0923\u094d\u0921\u0932\u0940": 5801,
  "\u2581\u0935\u0930\u094d\u0923": 5802,
  "\u2581\u0938\u0924\u094d\u092f\u093e\u092a\u093f\u0924": 5803,
  "\u2581\u0938\u094d\u0915\u0948\u0928": 5804,
  "\u0928\u091c\u093e\u0924": 5805,
  "\u0941\u0932": 5806,
  "\u258118,": 5807,
  "\u258148": 5808,
  "\u2581Himself": 5809,
  "\u2581Switch": 5810,
  "\u2581applied": 5811,
  "\u2581circuit": 5812,
  "\u2581demons": 5813,
  "\u2581\u0906\u0928\u0947\u0935\u093e\u0932\u0940": 5814,
  "\u2581\u0909\u0921\u093c\u093e": 5815,
  "\u2581\u0926\u0942\u0901": 5816,
  "\u2581attending": 5817,
  "\u2581issues": 5818,
  "\u2581sir": 5819,
  "\u2581troubled": 5820,
  "\u2581\u0924\u0947\u091c\u093c": 5821,
  "\u2581\u0926\u0940\u0902": 5822,
  "\u2581\u0926\u0947\u0935\u0924\u093e": 5823,
  "\u2581\u092b\u093e\u091f\u0915": 5824,
  "\u2581\u092b\u0948\u0932\u093e": 5825,
  "\u2581\u092c\u0924\u093e\u092f\u0940": 5826,
  "++": 5827,
  "\u092c\u093e\u0930": 5828,
  "\u2581particularly": 5829,
  "\u2581slain": 5830,
  "\u2581\u0924\u0947\u091c": 5831,
  "\u2581\u092b\u0930\u092e\u093e\u092f\u093e": 5832,
  "\u2581\u0938\u094d\u0915\u0947\u0932": 5833,
  "info": 5834,
  "\u2581Forward": 5835,
  "\u2581Mercy": 5836,
  "\u2581\u0915\u093f\u0928\u093e\u0930\u093e": 5837,
  "\u2581East": 5838,
  "\u2581La": 5839,
  "\u2581Selection": 5840,
  "\u2581bishop": 5841,
  "\u2581recited": 5842,
  "\u2581walked": 5843,
  "\u2581\u0905\u0927\u093f\u0915\u093e\u0930\u093f\u092f\u094b\u0902": 5844,
  "\u2581liars": 5845,
  "\u2581praying": 5846,
  "\u2581wild": 5847,
  "\u2581\u0928\u093f\u0915\u093e\u092f": 5848,
  "\u2581\u092a\u0948\u0930\u093e\u092e\u0940\u091f\u0930": 5849,
  ").\"": 5850,
  "\u0935\u0947\u0902": 5851,
  "\u2581energy": 5852,
  "\u2581growing": 5853,
  "\u2581\u0926\u093f\u092f\u0947": 5854,
  "\u2581\u0926\u094c\u0930": 5855,
  "\u2581\u0939\u093e\u0902": 5856,
  "ex": 5857,
  "\u2581abundant": 5858,
  "\u2581forces": 5859,
  "\u2581joyful": 5860,
  "\u2581zeal": 5861,
  "\u2581\u0917\u0932\u0924\u093f\u092f\u094b\u0902": 5862,
  "\u2581\u0928\u0924\u0940\u091c\u0947": 5863,
  "\u2581\u092b\u0942\u0932": 5864,
  "\u2581\u0936\u093e\u0938\u0940": 5865,
  "\u2581\u0939\u0901\u0938\u0940": 5866,
  "\u2581lower": 5867,
  "\u2581method": 5868,
  "\u2581\u091c\u0941\u0921\u093c": 5869,
  "\u2581\u0924\u0941\u091a\u094d\u091b": 5870,
  "\u2581\u0930\u094b\u0915\u0924\u0947": 5871,
  "\u2581\u0915\u0902\u092a\u094d\u092f\u0942\u091f\u0930": 5872,
  "\u2581\u091b\u0942\u091f": 5873,
  "\u25812000": 5874,
  "\u2581German": 5875,
  "\u2581ISO": 5876,
  "\u2581management": 5877,
  "\u2581meat": 5878,
  "\u2581powers": 5879,
  "\u2581Folders": 5880,
  "\u2581consideration": 5881,
  "\u2581frame": 5882,
  "\u2581green": 5883,
  "\u2581\u0926\u094b\u0937\u0940": 5884,
  "\u2581\u0928\u093f\u0935\u0947\u0926\u093f\u0924": 5885,
  "\u2581Fear": 5886,
  "\u2581Font": 5887,
  "\u2581MIME": 5888,
  "\u2581Rename": 5889,
  "\u2581\u090a\u0901\u091a\u0940": 5890,
  "\u2581\u092a\u094d\u0930\u093e\u0923\u0940": 5891,
  "\u0947\u0902\u0917\u0947": 5892,
  "\u2581French": 5893,
  "\u2581defined": 5894,
  "\u2581directly": 5895,
  "\u2581react": 5896,
  "\u2581\u0932\u093e\u0907\u092c\u094d\u0930\u0947\u0930\u0940": 5897,
  "\u2581enjoyment": 5898,
  "\u2581\u0924\u0941\u0930\u0902\u0924": 5899,
  "we": 5900,
  "\u2581Answer": 5901,
  "\u2581drinking": 5902,
  "\u2581ease": 5903,
  "\u2581verse": 5904,
  "\u2581\u091b\u0903": 5905,
  "\u2581\u0926\u093f\u0932\u093e\u0938\u093e": 5906,
  "\u2581\u0928\u0917\u0930\u094b\u0902": 5907,
  "\u2581\u0928\u093f\u0936\u093e\u0928": 5908,
  "\u2581\u0935\u093f\u0926\u094d\u092f\u093e\u0930\u094d\u0925\u093f\u092f\u094b\u0902": 5909,
  "\u2581\u0938\u093f\u0926\u094d\u0927\u093e\u0902\u0924\u094b\u0902": 5910,
  "\u2581Jordan": 5911,
  "\u2581Memo": 5912,
  "\u2581News": 5913,
  "\u2581contrary": 5914,
  "\u2581release": 5915,
  "\u2581Build": 5916,
  "\u2581Burning": 5917,
  "\u2581external": 5918,
  "\u2581\u0916\u093c\u094c\u092b": 5919,
  "\u2581\u091b\u094b\u0921\u093c\u0928\u0947": 5920,
  "\u2581\u092a\u093e\u0908": 5921,
  "\u258138": 5922,
  "\u2581respite": 5923,
  "\u2581student": 5924,
  "\u2581twelve": 5925,
  "\u2581\u092a\u0921\u093c\u0924\u0947": 5926,
  "\u2581\u092a\u0930\u093f\u0936\u094d\u0930\u092e": 5927,
  "\u2581\u092a\u094d\u0930\u0938\u094d\u0924\u0941\u0924": 5928,
  "ated": 5929,
  "Lord": 5930,
  "\u2581military": 5931,
  "\u2581princes": 5932,
  "\u2581\u0928\u094c\u091c\u0935\u093e\u0928": 5933,
  "\u2581\u092a\u093e\u0901\u0935": 5934,
  "\u0935\u093f": 5935,
  "\u2581Field": 5936,
  "\u2581Japan": 5937,
  "\u2581State": 5938,
  "\u2581\u0938\u0939\u0947\u091c\u0928\u093e": 5939,
  "\u2581deed": 5940,
  "\u2581descendants": 5941,
  "\u2581\u0915\u0948\u0926": 5942,
  "\u2581\u091a\u0922\u093c\u093e\u0908": 5943,
  "\u2581\u0935\u093f\u0921\u093f\u092f\u094b": 5944,
  "\u0935\u093e\u0932\u0940": 5945,
  "\u0940\u0926\u093e": 5946,
  "\u2581Public": 5947,
  "\u2581associates": 5948,
  "\u2581printed": 5949,
  "\u2581sender": 5950,
  "\u2581series": 5951,
  "\u2581\u0915\u0930\u0941\u0923\u093e": 5952,
  "\u2581\u0939\u094b\u0917\u0947\u0902": 5953,
  "\u0924\u093f\u0917\u0924": 5954,
  "\u2581Warning": 5955,
  "\u2581recognized": 5956,
  "\u2581\u0916\u093e\u0901\u091a\u093e": 5957,
  "\u2581\u0924\u0928": 5958,
  "\u2581\u0930\u093e\u0939\u0924": 5959,
  "\u2581\u0938\u092c\u0935\u0930\u094d\u0938\u0928": 5960,
  "\u2581Tasks": 5961,
  "\u2581board": 5962,
  "\u2581encouraging": 5963,
  "\u2581\u0921\u093e\u0932\u0947\u0917\u093e": 5964,
  "\u2581fonts": 5965,
  "\u2581haply": 5966,
  "\u2581\u0914\u091c\u093e\u0930\u092a\u091f\u094d\u091f\u0940": 5967,
  "\u2581\u092c\u0928\u0928\u093e": 5968,
  "\u2581package": 5969,
  "\u2581recall": 5970,
  "\u2581temptation": 5971,
  "\u2581\u0928\u093f\u092f\u0941\u0915\u094d\u0924": 5972,
  "\u2581\u0932\u0902\u092c\u093e\u0908": 5973,
  "\u2581\u0938\u092e\u094d\u092e\u0947\u0932\u0928": 5974,
  "\u2581Empty": 5975,
  "\u2581Subversion": 5976,
  "\u2581doctor": 5977,
  "\u2581insight": 5978,
  "\u2581referred": 5979,
  "\u2581whenever": 5980,
  "\u2581\u0911\u092a\u0930\u0947\u0936\u0928": 5981,
  "\u2581\u092c\u094b\u0932\u0924\u0947": 5982,
  "\u2581\u092e\u0938\u094c\u0926\u093e": 5983,
  "\u2581\u0968\u0969": 5984,
  "ize": 5985,
  "\u2581TRANS": 5986,
  "\u2581phone": 5987,
  "\u2581\u0905\u0932\u093e\u0930\u094d\u092e": 5988,
  "\u2581\u0906\u091c\u093c\u092e\u093e\u0907\u0936": 5989,
  "\u2581\u0921\u093e\u0932\u094b": 5990,
  "\u2581\u0938\u092e\u091d\u0915\u0930": 5991,
  "au": 5992,
  "\u0915\u0941\u092c\u0942\u0932": 5993,
  "\u2581Memorial": 5994,
  "\u2581directed": 5995,
  "\u2581icon": 5996,
  "\u2581possessions": 5997,
  "\u2581requests": 5998,
  "\u2581stress": 5999,
  "\u2581\u092a\u094d\u0930\u0947\u0930\u0923\u093e": 6000,
  "\u2581\u092d\u0917\u0935\u093e\u0928": 6001,
  "\u092e\u0924": 6002,
  "\u258120,": 6003,
  "\u2581Column": 6004,
  "\u2581\u0905\u0917\u0930\u091a\u0947": 6005,
  "\u2581\u0928\u0941\u0915\u093c\u0938\u093e\u0928": 6006,
  "\u2581\u092a\u0939\u0941\u0902\u091a": 6007,
  "\u2581dry": 6008,
  "\u2581fields": 6009,
  "\u2581glorious": 6010,
  "\u2581\u092a\u0930\u0947\u0936\u093e\u0928": 6011,
  "\u2581\u092a\u093f\u0915\u094d\u0938\u0947\u0932": 6012,
  "\u2581\u092c\u0947\u0939\u093f\u0936\u094d\u0924": 6013,
  "\u2581\u0938\u092e\u0930\u094d\u092a\u0923": 6014,
  "vi": 6015,
  "\u2581doth": 6016,
  "\u2581elements": 6017,
  "\u2581\u0907\u0902\u091f\u0930\u0928\u0947\u091f": 6018,
  "\u2581\u0909\u0920\u093e\u0915\u0930": 6019,
  "\u2581\u090f\u0928": 6020,
  "\u2581\u0935\u0948\u0938": 6021,
  "go": 6022,
  "\u201d;": 6023,
  "\u2581aught": 6024,
  "\u2581cost": 6025,
  "\u2581\u0905\u092a\u0947\u0915\u094d\u0937\u093e": 6026,
  "\u2581\u092c\u094b\u0932\u093e": 6027,
  "\u2581Audio": 6028,
  "\u2581believes": 6029,
  "\u093f\u0936": 6030,
  "\u2581charity": 6031,
  "\u2581confident": 6032,
  "\u2581pixels": 6033,
  "\u2581warnings": 6034,
  "\u2581worshippers": 6035,
  "\u2581\u0905\u0917\u0941\u0935\u093e\u0908": 6036,
  "\u2581\u092a\u093e\u090f\u0901": 6037,
  "\u2581\u0938\u094d\u0935\u0940\u0915\u093e\u0930\u0947\u0902": 6038,
  "\u2581bookmark": 6039,
  "\u2581center": 6040,
  "\u2581context": 6041,
  "\u2581fears": 6042,
[...]
